000001000010000100000000100000100001
000000000000000100000000000000000001
000000000000000100001000010000100001
000001000010000000001000010000000001
000001000000000100001000000000100001
000001000000000000000000000000100001
000001000010000100000000000000000000
000000000000000000001000010000100000
000001000000000100001000010000000000
000000000000000100001000010000000001
000001000000000100000000010000100001
000000000000000100000000000000000000
000001000000000100000000010000100000
000001000000000100000000010000100000
000001000010000000001000000000000000
000001000010000000000000010000100001
000010000000000100000000010000100000
000000000010000100010000000000100010
000001000000000000000000010000000000
000001000010000100001000010000100000
000001000000000100000000000000100001
000000000000000100001000000000000001
000001000010000100001000010000100000
000000000010000100001000000000100000
000000000010000100000000000000100001
000000000000000000001000010000000001
000001000000000100000000000000100001
000000000000000000001000000000000001
000000000010000000001000000000100001
000000000000000100000000000000000001
000001000010000100001000000000000000
000001000010000000001000000000100000
000001000010000100000000000000100000
000000000000000100001000000000000000
000000000000000000000000000000000001
000000000010000100001000010000100000
000000000010000000000000010000000000
000001000010000000000000000000000001
000001000010000000000000000000100001
000001000000000100000000000000000001
000001000000000100000000010000100000
000000000000000100000000000000100000
000000000010000100000000010000000001
000000000010000100000000000000100001
000000000000000000001000010000100001
000001000000000100000000010000100001
000001000000000000001000000000100000
000001000010000000000000010000100001
000000000000000000001000000000000001
000000000010000000000000000000100000
000000000010000100000000010000000001
000000000010000000001000000000000001
000001000000000000001000010000100001
000000000010000100001000010000100001
000001000000000100000000000000000001
000010000010000000000000010000000001
000010000000000100000000010000000000
000001000000000100000000010000100000
000000000010000100001000010000000001
000000000000000000000000010000000000
000001000000000100001000010000000010
000000000010000000000000010000100001
000001000010000100000000000000000000
000001000010000100001000010000000000
000001000010000000001000010000100000
000000000000000000001000010000100001
000000000010000000000000000000000001
000001000010000000000000000000100000
000001000010000100000000000000000000
000001000010000000000000000000000000
000001000000000100000000000000100001
000001000000000000000000000000100000
000001000000000100000000010000000001
000000000010000000000000010000100000
000000000010000100001000010000000000
000000000000000100000000010000000000
000000000010000100000000000000000001
000001000010000100001000010000100001
000000000000000100001000010000100000
000000000000000100000000010000000000
000001000000000100001000000000100001
000000000000000000001000000000100000
000000000010000000000000000000000001
000000000010000000000000000000000001
000000000000000000001000010000100000
000001000010000000000000010000000000
000000000000000100000000000000000000
000000000010000000000000000000000000
000000000010000000000000010000100000
000000000010000100001000010000100000
000000000000000000000000010000000000
000001000000000100010000000000100000
000001000010000100001000000000100001
000000000010000000000000000000100000
000001000000000100001000000000100001
000001000000000100000000010000100000
000001000010000000000000010000100000
000001000000000100001000010000000001
000001000010000100001000000000000000
000000000010000000001000010000000000
000001000010000000000000010000000000
000001000000000100001000010000100001
000000000010000100001000010000000010
000000000000000100000000000000000000
000001000010000000000000010000100001
000000000010000000000000000000000001
000000000010000100001000000000100000
000000000010000000001000000000000000
000001000010000000001000010000100000
000001000010000000001000000000000000
000010000000000000001000010000000001
000000000000000000001000010000100001
000001000010000100001000000000100000
000001000000000100001000000000000001
000000000010000000001000000000000000
000000000010000100000000000000000000
000000000010000100001000000000000000
000000000010000100001000000000000001
000001000000000100001000000000100000
000000000010000000000000010000100001
000001000000000000001000010000000000
000000000000000000000000000000000001
000001000000000000001000010000000001
000001000000000100001000000000100000
000000000000000000000000000000100001
000000000010000000001000010000000001
000001000010000000000000000000100000
000000000000000000010000010000100000
000000000010000000001000000000000000
000010000000000100000000010000100000
000000000000000100000000010000000000
000000000000000000001000000000000001
000001000000000100000000010000100001
000001000010000000000000010000100001
000001000010000000001000000000000000
000000000010000000001000000000000000
000000000000000100000000000000100000
000001000010000100001000000000000001
000000000010000000001000000000100001
000001000000000000001000000000100000
000001000010000100001000010000000000
000000000010000000001000010000100000
000001000000000100001000000000000001
000000000010000100001000010000000000
000001000010000100001000000000000000
000000000000000000000000010000100001
000001000010000000000000000000000000
000001000000000100001000000000100010
000001000000000100001000000000000000
000001000000000000001000000000100001
000000000000000000001000000000100000
000001000000000000000000010000000000
000001000000000000000000010000100000
000000000000000100001000000000000001
000000000010000000000000000000000001
000001000000000000001000000000000000
000001000000000100000000000000000001
000000000010000100001000010000100000
000010000010000100001000010000000000
000000000000000000000000010000100000
000001000000000000000000000000000000
000001000000000100001000000000100000
000000000000000000001000010000100000
000000000000000100000000010000000000
000000000010000000001000010000000001
000001000000000100000000000000100000
000000000010000000000000000000000000
000000000010000000001000000000100001
000001000010000000001000000000100001
000000000010000100001000010000100001
000001000010000100000000010000100001
000001000000000100000000000000100000
000001000000000100000000010000000001
000000000010000000000000000000100001
000001000000000100001000010000000001
000001000000000100001000010000000001
000001000010000000000000000000000000
000001000000000100000000010000100000
000001000000000100001000000000000001
000000000000000100001000000000000001
000000000000000000001000010000000000
000000000000000100000000010000100000
000001000010000000001000010000000001
000001000010000100000000010000100001
000001000010000000001000000000100001
000000000010000000000000000000100000
000000000000000100000000000000000000
000000000000000100000000010000100000
000000000010000000001000000000000001
000000000000000000000000000000100001
000000000000000100000000010000100001
000000000010000000001000010000100001
000001000010000000001000010000000001
000000000000000000000000000000100001
000001000000000100001000010000100001
000001000000000100000000100000100000
000000000000000000000000010000100000
000001000010000000001000010000000000
000001000000000100001000000000000000
000000000010000100000000000000000000
000001000010000000000000010000100001
000000000010000000001000000000000000
000000000000000100001000000000100001
000000000010000000000000000000000000
000000000000000000001000000000000001
000001000000000000000000010000100000
000000000000000000001000010000100000
000000000010000100000000010000000001
000000000010000000000000010000100001
000000000000000000000000000000000000
000001000010000100001000010000100000
000000000010000100001000010000100001
000001000000000000001000010000000000
000000000010000100000000010000100001
000001000010000000001000000000100001
000001000010000100000000010000000001
000000000010000000000000010000000001
000000000000000000001000010000100000
000001000000000000000000010000000000
000000000000000100000000000000100001
000001000010000000000000010000000000
000000000010000100001000000000100001
000001000010000000001000010000000000
000001000010000000000000010000100000
000001000000000100001000000000100001
000000000000000000001000000000100000
000001000000000000000000010000000000
000000000010000000001000010000000000
000000000000000100001000010000100001
000000000000000100000000010000000000
000000000010000000001000000000100001
000000000000000100001000010000100000
000001000000000100000000000000100010
000000000010000100010000000000000001
000001000000000100001000010000100000
000000000000000100001000010000000000
000000000010000100000000010000100000
000000000000000100000000010000000000
000000000010000100001000000000100001
000001000000000100000000010000100001
000001000010000100000000010000000001
000001000010000000000000000000100000
000000000000000100000000010000000001
000001000000000100001000010000000000
000001000000000100001000010000100001
000001000000000000000000010000000001
000000000010000100001000010000000000
000001000010000000001000010000100001
000001000010000000000000000000100001
000000000010000100001000010000000001
000000000000000100000000000000000000
000001000000000100000000000000000000
000000000000000100001000000000100000
000001000010000100001000010000100000
000001000010000000001000010000000000
000000000000000000000000000000000001
000000000010000100000000000000000001
000001000000000100000000000000100001
000000000010000000001000000000000001
000001000010000100001000000000000000
000001000010000000000000000000100000
000001000010000000001000000000000001
000000000010000000001000000000000000
000000000000000000001000000000000000
000000000000000000000000000000000001
000000000000000100000000010000100000
000000000010000100001000010000000001
000000000010000100010000000000000001
000000000000000000001000010000000001
000001000010000100000000000000100000
000000000000000000001000000000100001
000000000000000100000000000000000001
000000000000000000001000010000000001
000001000010000100001000010000000000
000001000010000100001000010000100000
000000000000000000000000000000000001
000001000000000000001000010000100000
000001000000000000000000000000100000
000000000010000000000000000000000010
000001000000000100000000010000100000
000000000000000000001000000000100000
000000000010000000001000000000100001
000000000000000100001000000000100001
000000000010000000000000000000100000
000000000000000000000000000000000001
000001000000000000001000000000000001
000001000000000000000000000000100000
000000000010000100000000010000100001
000001000000000000000000010000000001
000000000010000100001000000000000000
000001000000000000001000010000100001
000000000000000100001000000000000000
000010000010000000000000000000000000
000001000000000100000000000000000000
000000000010000100001000000000000001
000000000010000100001000010000000000
000000000010000100001000000000100000
000000000000000100000000010000000001
000000000000000100000000010000000000
000000000000000100001000010000000000
000001000010000100000000010000100001
000000000010000100001000010000100000
000000000000000000001000000000000001
000001000010000100001000000000100001
000000000010000000000000000000100000
000001000000000100000000010000000001
000000000000000000000000010000100000
000000000000000100000000010000000001
000001000010000100001000010000000000
000000000000000000000000000000100001
000001000000000100001000000000000000
000001000000000100000000000000100000
000000000010000000001000010000100000
000000000010000000000000010000000000
000000000000000100001000000000000010
000000000000000000001000010000000001
000000000000000000001000010000100001
000001000000000100001000000000100000
000000000010000100001000000000100000
000000000000000000000000000000100001
000001000010000100000000010000100001
000000000010000100000000000000000001
000001000010000100000000000000000001
000000000010000000001000000000100001
000000000010000100000000010000100000
000001000010000000000000010000100001
000000000010000100001000000000000001
000000000010000100000000010000100001
000000000010000000001000000000100000
000000000010000100001000000000100000
000000000000000000001000000000000000
000001000010000100001000000000100001
000001000000000100000000010000100000
000000000010000000000000000000000001
000000000000000000001000010000100001
000000000000000000000000010000100001
000001000010000000000000010000100000
000000000000000000001000000000100000
000000000000000100001000010000000001
000000000000000000001000010000000001
000000000000000100000000000000000000
000001000000000000000000000000100001
000000000000000000000000010000000001
000001000000000100001000010000100001
000001000000000100001000010000100001
000001000000000000000000010000000001
000000000000000100000000000000000000
000001000010000100001000000000100001
000000000010000100001000010000100000
000001000010000000001000010000000001
000000000000000100001000010000000000
000001000000000100001000010000000000
000001000010000000000000000000000000
000000000000000000000000000000100001
000001000010000100000000010000100001
000000000000000100001000010000100001
000001000010000000000000010000100000
000001000010000100001000010000100001
000001000010000000001000010000000001
000001000000000100000000010000100000
000001000010000000000000010000100000
000000000000000000001000000000000000
000001000000000100001000010000000001
000001000000000000001000000000000000
000000000010000000000000010000100001
000000000000000100000000010000000000
000000000000000100000000000000000001
000001000010000000001000010000000000
000001000010000000000000000000100000
000000000010000100001000000000000000
000001000010000000000000000000000001
000001000000000100000000000000000000
000001000010000100001000010000000000
000000000000000000000000000000100001
000000000000000000001000010000000000
000000000010000100000000010000100000
000001000010000100001000100000100001
000001000010000000001000000000100001
000000000000000000000000010000100001
000001000000000100000000000000000001
000001000010000100000000000000100001
000001000000000100000000000000000000
000000000010000000000000000000100001
000000000000000000000000010000100001
000000000000000100001000010000100001
000001000000000000000000010000000000
000000000010000100001000010000000001
000000000000000100000000010000100001
000001000000000100001000000000100000
000001000000000000001000010000100000
000001000010000100000000000000000000
000001000010000100001000010000100001
000001000010000000001000000000100000
000001000000000100001000000000100000
000001000010000100000000000000100001
000001000000000100001000000000000000
000000000000000100001000010000000001
000000000000000000000000010000100000
000000000010000000001000000000100010
000001000000000100000000000000100000
000001000010000000000000000000100001
000000000000000000000000010000100000
000001000000000100000000010000100001
000001000000000000001000000000000001
000000000010000000000000000000000001
000000000010000100001000000000000001
000001000000000100001000000000100001
000000000000000000001000010000000000
000000000000000000001000010000000000
000001000010000100001000000000000001
000000000010000000000000010000100001
000001000000000100001000010000000000
000001000000000100001000000000100000
000000000000000000001000010000100001
000001000010000100001000010000000001
000001000010000100001000010000000001
000000000010000100000000000000000000
000000000000000100000000000000100001
000001000000000000001000000000100000
000001000000000000001000010000100000
000001000000000000001000010000000000
000000000010000000001000010000000000
000001000010000100001000010000100000
000010000000000100000000000000000000
000000000010000100000000000000100000
000001000010000100001000010000100000
000001000000000000001000010000100001
000000000010000100001000100000100000
000001000000000000000000010000100001
000001000010000100001000000000000001
000001000000000100001000010000000000
000001000000000100000000010000100001
000000000000000100000000010000000001
000000000010000100000000000000000001
000000000000000000001000010000100001
000001000000000100000000000000000001
000000000010000000010000010000100000
000001000000000000001000010000100001
000001000010000100000000010000100000
000001000000000100001000000000100000
000010000000000100001000010000100000
000001000010000000000000000000100000
000000000010000000001000000000100001
000001000000000100000000010000000001
000001000000000100000000010000000000
000000000010000100001000000000100000
000001000010000100001000010000000001
000001000000000100001000000000100001
000000000000000000000000010000100000
000001000010000000000000000000100001
000001000010000000001000000000100001
000001000010000000001000000000100001
000001000010000000000000010000100001
000000000010000000001000000000100010
000001000000000100000000010000000001
000001000000000100000000010000000000
000001000000000100001000000000100001
000001000010000100000000010000000000
000000000000000100001000000000100001
000000000000000000001000010000100001
000000000000000100001000000000000000
000001000010000100001000010000000001
000000000010000100001000010000000001
000001000000000000000000010000100001
000000000000000100000000010000100000
000001000010000000000000010000000010
000001000000000000001000000000100001
000000000010000100000000000000000000
000001000000000000001000010000100000
000001000000000000001000010000100000
000001000010000000001000000000000001
000000000000000100001000000000000000
000001000010000100001000000000000001
000000000010000000000000000000000000
000001000010000000001000000000100010
000000000000000000000000010000100010
000001000000000000001000000000000001
000000000010000100000000000000100001
000000000010000100000000010000100000
000000000010000100000000010000100000
000001000010000000000000000000100000
000001000000000000001000000000000000
000001000010000100000000000000100001
000000000010000000000000000000100000
000001000010000100001000000000100001
000000000000000100001000000000100001
000000000000000000000000010000000000
000000000010000000001000000000100000
000001000010000100001000000000000000
000001000000000100001000000000100000
000000000010000000000000000000000001
000000000010000100001000000000100000
000001000010000100001000000000100000
000000000010000100000000010000000000
000001000000000000001000000000000000
000001000010000000001000000000100000
000000000000000100001000000000000001
000001000000000000000000000000000000
000000000010000100000000010000000001
000000000000000000001000010000100000
000001000000000100001000010000100001
000001000010000100001000000000100001
000000000010000000001000000000000001
000001000000000100000000000000000000
000001000010000000001000010000000000
000000000000000000001000000000000000
000000000000000000001000000000100010
000000000000000000001000000000000000
000000000010000000001000010000000001
000000000010000000001000000000000000
000000000000000000001000000000100000
000001000010000000001000000000000001
000001000000000000000000010000100000
000000000000000100000000000000000001
000000000000000100001000010000000000
000001000000000000000000000000000000
000001000010000000001000010000000001
000001000000000000000000000000000000
000001000000000000001000000000100001
000001000000000000001000010000000001
000001000010000100000000010000100000
000000000010000000000000010000100001
000001000010000100001000000000100001
000000000000000100000000000000100001
000000000010000000000000010000000000
000000000010000000001000010000000001
000000000010000000001000010000100001
000000000000000000000000010000000001
000001000000000000001000000000100001
000000000000000000001000100000000000
000001000010000100001000000000000001
000000000000000000000000000000100001
000010000000000000001000000000000000
000000000010000100001000000000000001
000001000010000000001000010000100000
000000000010000000000000000000000000
000001000000000000000000000000000000
000001000000000000000000000000000001
000000000000000000000000010000000000
000000000000000100000000000000000001
000000000010000100000000010000100000
000001000000000100000000000000000000
000000000010000000000000010000100001
000001000000000100001000010000100001
000000000000000100001000010000000001
000001000010000000001000000000000001
000001000000000000000000010000000001
000001000010000000001000010000000001
000000000000000100001000010000000000
000000000010000100001000000000100001
000000000010000000001000000000100000
000001000010000000000000010000100000
000001000000000100000000000000100001
000001000010000000001000010000000001
000000000000000000001000000000100001
000000000000000000000000000000100000
000000000000000100001000010000100000
000001000010000100000000010000000001
000000000000000100000000010000100001
000000000000000100001000000000000000
000001000000000000000000000000100001
000000000000000000000000010000100000
000001000010000100000000000000000001
000001000010000100000000000000100000
000000000010000000000000010000000000
000001000000000100000000010000100001
000001000010000000000000000000000001
000001000000000100001000010000100001
000000000000000000000000010000100001
000001000000000100000000000000100001
000000000010000100001000010000100001
000010000010000100000000000000000001
000001000000000000001000010000000001
000000000000000000001000000000100000
000000000010000100000000000000000001
000000000010000100000000000000000000
000000000000000100000000000000000001
000000000010000000000000010000100001
000010000000000000000000000000000000
000001000010000000000000000000000001
000001000010000100001000000000000000
000000000010000100000000010000100001
000000000010000000000000010000000001
000001000000000100001000000000000001
000001000010000000000000000000000000
000000000010000100000000000000100000
000001000000000100000000000000000001
000000000000000000000000000000100010
000001000010000100000000010000100000
000000000010000100001000000000000000
000000000000000000001000010000000001
000001000000000000000000010000000001
000001000000000000000000010000000001
000001000000000000001000000000000001
000000000000000100000000000000000001
000000000010000100001000000000100000
000000000000000000000000010000000000
000000000010000100000000010000100001
000001000010000000000000000000000000
000001000000000000010000010000000001
000000000010000100000000000000100001
000001000000000100001000000000100001
000000000010000100000000000000000001
000001000000000100000000010000100001
000001000000000100001000000000000000
000000000000000100000000000000100001
000001000000000100001000010000000000
000000000010000000000000000000100001
000001000010000000000000000000100001
000001000010000100001000000000000000
000001000010000000000000010000100010
000000000010000100000000000000100000
000001000010000100001000000000000001
000000000010000100000000000000100000
000000000000000100000000010000100000
000000000000000000000000010000000001
000001000000000000001000010000000001
000001000000000000000000010000000000
000000000010000100001000000000000001
000000000010000000001000000000000000
000000000010000100000000010000000001
000001000000000100001000000000100001
000000000010000100000000010000000000
000000000010000000000000010000000000
000001000000000000001000000000000001
000000000010000000000000010000000000
000000000000000100001000010000100000
000000000010000100001000000000100001
000001000010000100001000010000100000
000010000000000100000000000000000001
000000000000000000001000010000000000
000000000010000000001000010000100001
000001000010000000000000010000100000
000000000000000000001000010000100001
000000000000000100000000000000000000
000001000010000100001000000000000000
000001000010000100001000000000000001
000001000010000000000000010000000000
000000000000000000001000000000000001
000010000000000100001000000000100000
000000000010000100001000000000000001
000001000010000000000000010000000000
000001000010000100001000000000100001
000000000000000000001000010000100001
000001000000000100000000010000000001
000001000000000100001000000000000001
000001000010000000000000000000000000
000000000010000000001000000000100000
000001000010000000000000010000000001
000000000010000100001000000000100000
000001000000000000000000010000100000
000000000010000000001000000000100000
000001000000000000001000010000100000
000000000000000000001000000000100001
000000000010000000000000010000100000
000001000010000000000000010000000000
000000000010000100000000010000100001
000010000000000100001000010000100001
000000000000000000000000010000000000
000000000010000100001000010000000001
000000000000000100000000000000000000
000000000000000000001000000000000001
000001000000000000001000010000000000
000000000000000000001000010000000000
000001000000000100000000000000000001
000001000000000000000000000000000001
000000000000000100001000010000100001
000001000010000000000000010000100000
000001000000000000001000000000100001
000000000010000000001000000000000001
000000000010000000000000010000100001
000000000010000000001000010000100001
000000000010000000001000010000100000
000000000010000000001000000000000001
000001000010000000000000010000100001
000001000010000000000000010000100000
000001000010000100000000010000100000
000000000000000100000000010000100001
000000000010000100000000000000000001
000001000010000100001000010000000000
000001000010000100000000000000100000
000010000000000000001000000000000000
000001000010000000000000000000100000
000001000000000100001000000000000001
000000000000000000000000010000000010
000001000010000000001000010000100000
000000000000000000001000000000000001
000001000000000100000000010000000001
000000000010000100000000010000000001
000000000000000000001000010000000001
000001000010000100000000010000100000
000001000000000100000000010000000001
000001000010000000001000010000100000
000001000000000000001000010000100000
000001000010000100000000010000100001
000001000000000000001000010000100001
000001000010000100001000010000000001
000001000000000000000000010000000000
000010000010000100000000000000100000
000000000010000100001000010000000000
000001000000000000000000010000000001
000001000000000100000000000000000001
000000000010000100000000010000000001
000000000000000000000000000000000000
000000000000000000000000000000000001
000000000010000100001000010000100001
000001000010000000000000000000100000
000000000010000100000000000000000001
000000000010000000001000010000100010
000001000010000000000000000000100000
000000000010000100000000010000000000
000001000000000000001000000000100000
000001000010000100000000000000000000
000001000000000100001000000000100001
000000000000000000000000010000000000
000000000010000000001000000000100000
000001000010000100000000000000100001
000000000000000000000000000000000001
000000000000000000000000000000000000
000010000000000100001000010000000001
000001000010000000001000010000000000
000000000010000000001000000000000001
000001000000000000000000010000100000
000000000000000100001000000000100000
000000000010000100001000010000000000
000001000000000000001000000000100000
000000000000000100001000000000000001
000000000010000100001000000000100000
000000000010000100001000010000000001
000001000010000000000000000000000001
000010000000000100001000000000000001
000001000000000000000000010000000000
000010000010000000000000000000000000
000000000000000100000000010000100001
000000000010000100000000010000100001
000001000010000100001000000000000000
000001000000000000000000000000000000
000001000000000000001000010000000010
000000000000000000001000010000100000
000001000010000000000000000000100000
000001000000000000010000010000000001
000000000010000100001000010000000001
000000000000000000000000000000000001
000001000000000000001000010000000001
000000000000000100001000000000000001
000000000010000100001000010000000000
000001000000000000000000010000000000
000001000010000100001000000000000001
000001000010000000000000000000000000
000000000000000100000000000000100000
000001000010000000000000010000100001
000001000000000100000000000000000000
000010000010000000000000000000000000
000000000000000100001000000000000000
000001000000000100001000010000000010
000000000000000100000000000000000000
000001000010000000001000000000000000
000000000010000000001000010000100000
000000000000000000001000010000000000
000001000010000100000000000000000000
000001000010000000000000010000100010
000001000010000100001000010000100000
000001000010000000000000000000100001
000001000010000100001000000000000000
000001000010000100001000010000000000
000000000010000000001000010000100000
000000000010000000000000000000000001
000001000010000000001000010000000001
000001000010000100000000010000100001
000001000010000100000000010000100001
000000000000000000000000010000100001
000001000000000000000000000000100001
000000000010000100000000010000000000
000000000010000000000000000000100001
000001000000000000001000010000000000
000000000010000100001000100000000000
000001000000000000000000010000100000
000000000010000100000000000000100000
000001000000000100000000010000100000
000000000000000000000000000000100000
000001000010000100001000000000100000
000001000000000100000000000000100001
000001000010000100001000000000100001
000000000000000100001000010000100000
