000000000000000000000000000000000000
000000000000000000000000000000000000
000000000000000000000000000000000000
000000000000000000000000000000000000
000000000000000000000000000000000000
000000000000000000000000000000000000
000000000000000000000000000000000000
000000000000000000000000000000000000
000000000000000000000000000000000000
000000000000000000000000000000000000
000000000000000000000000000000000000
000000000000000000000000000000000000
000000000000000000000000000000000000
000000000000000000000000000000000000
000000000000000000000000000000000000
000000000000000000000000000000000000
000000000000000000000000000000000000
000000000000000000000000000000000000
000000000000000000000000000000000000
000000000000000000000000000000000000
000000000000000000000000000000000000
000000000000000000000000000000000000
000000000000000000000000000000000000
000000000000000000000000000000000000
000000000000000000000000000000000000
000000000000000000000000000000000000
000000000000000000000000000000000000
000000000000000000000000000000000000
000000000000000000000000000000000000
000000000000000000000000000000000000
000000000000000000000000000000000000
000000000000000000000000000000000000
000000000000000000000000000000000000
000000000000000000000000000000000000
000000000000000000000000000000000000
000000000000000000000000000000000000
000000000000000000000000000000000000
000000000000000000000000000000000000
000000000000000000000000000000000000
000000000000000000000000000000000000
000000000000000000000000000000000000
000000000000000000000000000000000000
000000000000000000000000000000000000
000000000000000000000000000000000000
000000000000000000000000000000000000
000000000000000000000000000000000000
000000000000000000000000000000000000
000000000000000000000000000000000000
000000000000000000000000000000000000
000000000000000000000000000000000000
000000000000000000000000000000000000
000000000000000000000000000000000000
000000000000000000000000000000000000
000000000000000000000000000000000000
000000000000000000000000000000000000
000000000000000000000000000000000000
000000000000000000000000000000000000
000000000000000000000000000000000000
000000000000000000000000000000000000
000000000000000000000000000000000000
000000000000000000000000000000000000
000000000000000000000000000000000000
000000000000000000000000000000000000
000000000000000000000000000000000000
000000000000000000000000000000000000
000000000000000000000000000000000000
000000000000000000000000000000000000
000000000000000000000000000000000000
000000000000000000000000000000000000
000000000000000000000000000000000001
000000000000000000000000000000000001
000000000000000000000000000000000000
000000000000000000000000000000000000
000000000000000000000000000000000000
000000000000000000000000000000000000
000000000000000000000000000000000000
000000000000000000000000000000000000
000000000000000000000000000000000000
000000000000000000000000000000000000
000000000000000000000000000000000000
000000000000000000000000000000000000
000000000000000000000000000000000000
000000000000000000000000000000000000
000000000000000000000000000000000000
000000000000000000000000000000000000
000000000000000000000000000000000000
000000000000000000000000000000000000
000000000000000000000000000000000000
000000000000000000000000000000000000
000000000000000000000000000000000000
000000000000000000000000000000000000
000000000000000000000000000000000000
000000000000000000000000000000000000
000000000000000000000000000000000000
000000000000000000000000000000000000
000000000000000000000000000000000001
000000000000000000000000000000000001
000000000000000000000000000000000010
000000000000000000000000000000000010
000000000000000000000000000000000001
000000000000000100000000000000000001
000000000000000100000000000000000000
000000000000001000000000000000000000
000000000000000100000000000000000000
000000000000000100000000000000000000
000000000000000000000000000000000000
000000000000000000000000000000000000
000000000000000000000000000000000000
000000000000000000000000000000000000
000000000000000000000000000000000000
000000000000000000000000000000000000
000000000000000000000000000000000000
000000000000000000000000000000000000
000000000000000000000000000000000000
000000000000000000000000000000000000
000000000000000000000000000000000000
000000000000000000000000000000000000
000000000000000000000000000000000000
000000000000000000000000000000000000
000000000000000000000000000000000000
000000000000000000000000000000000000
000000000010000000000000000000000000
000000000010000000000000000000000001
000000000010000000000000000000000001
000000000100000000000000000000000010
000001000100000000000000000000000010
000001000100000000000000000000000010
000001000010000100000000000000000001
000001000010001000000000000000000001
000000000000001000000000000000000000
000000000000001000000000000000000000
000000000000001000000000000000000000
000000000000000100000000000000000000
000000000000000100000000000000000000
000000000000000000000000000000000000
000000000000000000000000000000000000
000000000000000000000000000000000000
000000000000000000000000000000000000
000000000000000000000000000000000000
000000000000000000000000000000000000
000000000000000000000000000000000000
000000000000000000000000000000000000
000000000000000000000000000000000000
000000000000000000000000000000000000
000000000000000000000000000000000000
000000000000000000000000000000000000
000000000000000000000000000000000000
000000000010000000000000000000000000
000000000010000000000000000000000000
000000000100000000000000000000000001
000000000110000000000000000000000001
000001000110000000000000000000000010
000010000110000000000000000000000010
000010000110000000000000000000000010
000010000110000100000000000000000010
000010000110001000000000000000000001
000010000100001100000000000000000000
000010000010001100000000000000000000
000001000010001100000000000000000000
000001000000001000001000000000000000
000000000000000100001000000000000000
000000000000000000001000000000000000
000000000000000000000000000000000000
000000000000000000000000000000000000
000000000000000000000000000000000000
000000000000000000000000000000000000
000000000000000000000000000000000000
000000000000000000000000000000000000
000000000000000000000000000000000000
000000000000000000000000000000000000
000000000000000000000000000000000000
000000000000000000000000000000000000
000000000000000000000000000000000000
000000000000000000000000000000000000
000000000000000000000000000000000000
000000000010000000000000000000000000
000000000100000000000000000000000000
000001000100000000000000000000000001
000001000110000000000000000000000010
000010000110000000000000000000000011
000011000110000000000000000000000011
000011000110000000001000000000000010
000011000110001000000000000000000001
000011000110001100000000000000000000
000010000110001100000000000000000000
000010000100001100000000000000000000
000010000010001000001000000000000000
000001000010000100010000000000000000
000001000000000100010000000000000000
000000000000000000001000000000000000
000000000000000000001000000000000000
000000000000000000000000000000000000
000000000000000000000000000000000000
000000000000000000000000000000000000
000000000000000000000000000000000000
000000000000000000000000000000000000
000000000000000000000000000000000000
000000000000000000000000000000000000
000000000000000000000000000000000000
000000000000000000000000000000000000
000000000000000000000000000000000000
000000000000000000000000000000000000
000000000000000000000000010000000000
000000000010000000000000010000100000
000000000010000000000000010000100000
000001000100000000000000010001000001
000010000100000000001000010001000010
000011000100000000001000010001000011
000011000100000000001000100001000010
000011000100000100001000100001000001
000011000100001100001000010001000001
000010000100001100001000010001000000
000010000100001100000000010001000000
000011000100001000001000010001000000
000011000100000100010000010001000000
000010000010000100011000000000100000
000010000000000000010000000000100000
000001000000000000001000000000000000
000000000000000000001000000000000000
000000000000000000000000000000000000
000000000000000000000000000000000000
000000000000000000000000000000000000
000000000000000000000000000000000000
000000000000000000000000000000000000
000000000000000000000000000000000000
000000000000000000000000000000000000
000000000000000000000000000000000000
000000000000000000000000000000000000
000000000000000000000000010000000000
000000000000000000000000010000100000
000000000000000000000000100000100000
000000000000000000000000100001000000
000001000010000000000000110001000001
000010000010000000000000110001100010
000011000010000000001000110010000011
000011000010000000010000110010000011
000010000010000100010000110010000010
000010000010001000010000110010000001
000010000010001100001000110010000000
000010000100010000000000110010000000
000010000100001000001000110010000000
000010000100000100001000110010000000
000010000010000100010000100010000000
000011000000000000011000010001100000
000010000000000000010000000001000000
000001000000000000001000000000100000
000000000000000000000000000000000000
000000000000000000000000000000000000
000000000000000000000000000000000000
000000000000000000000000000000000000
000000000000000000000000000000000000
000000000000000000000000000000000000
000000000000000000000000000000000000
000000000000000000000000000000000000
000000000000000000000000000000000000
000000000000000000000000010000000000
000000000000000000000000010000000000
000000000000000000000000100000100000
000000000000000000000000110001000000
000001000000000000000000110001100000
000010000000000000000001000001100001
000011000000000000001001000010000010
000011000010000000010001000010000011
000010000010000100011000110010000010
000010000010001000010000110010000001
000001000010001100001001000010000000
000001000100001100001001000010000000
000001000100001100000001000010000000
000001000100000100000001000010000000
000001000100000100010001000010000000
000010000010000000011000110010000000
000010000000000000011000100010000000
000010000000000000010000010001100000
000010000000000000001000000000100000
000001000000000000000000000000000000
000000000000000000000000000000000000
000000000000000000000000000000000000
000000000000000000000000000000000000
000000000000000000000000000000000000
000000000000000000000000000000000000
000000000000000000000000000000000000
000000000000000000000000000000000000
000000000000000000000000000000000000
000000000000000000000000010000000000
000000000000000000000000010000000000
000000000000000000000000100000100000
000000000000000000000000110001000000
000001000000000000000000110001000001
000010000000000000001001000001100010
000011000000000000010000110001100011
000010000010000100011000110001100011
000010000010001000011000110001100010
000001000010001100010000100001100001
000001000100010000001000100001000000
000000000100001100000000110001000000
000000000110001000000000110001000000
000000000100000000001000110001100000
000001000100000000011001000001100000
000001000010000000100001000010000000
000010000000000000011000110010000000
000010000000000000010000010001100000
000010000000000000001000000000100000
000001000000000000000000000000000000
000000000000000000000000000000000000
000000000000000000000000000000000000
000000000000000000000000000000000000
000000000000000000000000000000000000
000000000000000000000000000000000000
000000000000000000000000000000000000
000000000000000000000000000000000000
000000000000000000000000000000000000
000000000000000000000000000000000000
000000000000000000000000010000000000
000000000000000000000000100000000000
000000000000000000000000100000100000
000010000000000000000000110001000001
000011000000000000010000110001000010
000011000010000000011000100001000011
000010000010000100100000100001000010
000001000100001100011000010000100001
000000000110001100001000010000100000
000000000110001100000000010000100000
000000000110001000000000010000100000
000000000110000100000000100000100000
000000000110000000001000110000100001
000000000100000000011000110001100001
000001000010000100011000110010000001
000010000000000100010000110010000001
000010000000000000001000010001000001
000010000000000000000000000000100001
000010000000000000000000000000000000
000001000000000000000000000000000000
000000000000000000000000000000000000
000000000000000000000000000000000000
000000000000000000000000000000000000
000000000000000000000000000000000000
000000000000000000000000000000000000
000000000000000000000000000000000000
000000000000000000000000000000000000
000000000000000000000000000000000000
000000000000000000000000010000000000
000000000000000000000000010000000000
000001000000000000000000100000100000
000010000000000000001000100000100001
000011000000000000010000100000100011
000010000010000100100000010000100011
000010000100001000011000010000100010
000001000110001100010000000000000001
000000000110001100001000000000000000
000000000110001100000000000000000000
000000000110000100000000010000000001
000000000110000100001000010000000001
000000000110000100011000100000100010
000000000110000100100000110001100010
000000000100000100100001000010000010
000001000010000100010000110010000010
000010000000000100001000010001000010
000011000000000000000000000000000010
000010000000000000000000000000000001
000001000000000000000000000000000000
000000000000000000000000000000000000
000000000000000000000000000000000000
000000000000000000000000000000000000
000000000000000000000000000000000000
000000000000000000000000000000000000
000000000000000000000000000000000000
000000000000000000000000000000000000
000000000000000000000000000000000000
000000000000000000000000000000000000
000000000000000000000000010000000000
000001000000000000000000010000000000
000010000000000000010000100000000001
000011000010000000011000010000100011
000010000010001000100000010000100011
000001000100001100011000010000000010
000000000100001100001000000000000001
000000000110001100001000000000000000
000000000110001000001000000000000001
000000000100000100001000000000000001
000000000100000100010000010000000010
000000000110001000100000100001000011
000000000110001000100000110010000011
000000000110001000011001000010000011
000001000100001000010000110001100011
000010000010000100001000010000100011
000011000000000000000000000000000010
000010000000000000000000000000000010
000001000000000000000000000000000001
000000000000000000000000000000000000
000000000000000000000000000000000000
000000000000000000000000000000000000
000000000000000000000000000000000000
000000000000000000000000000000000000
000000000000000000000000000000000000
000000000000000000000000000000000000
000000000000000000000000000000000000
000000000000000000000000000000000000
000001000000000000000000000000000000
000010000000000000001000010000000000
000010000000000000010000010000000010
000011000000000100100000010000000011
000010000010001000100000010000000011
000001000010001100011000000000000010
000000000010001100010000000000000001
000000000010001100010000000000000001
000000000010001000010000000000000001
000000000010001000011000000000000010
000000000010001000100000010000100011
000000000010001000100000100001100011
000000000100001100100000110010000010
000000000110001100011001000010000010
000001000110001100010000110001000010
000010000100001000001000010000100011
000011000010000100001000000000000011
000010000000000000000000000000000010
000001000000000000000000000000000001
000000000000000000000000000000000000
000000000000000000000000000000000000
000000000000000000000000000000000000
000000000000000000000000000000000000
000000000000000000000000000000000000
000000000000000000000000000000000000
000000000000000000000000000000000000
000000000000000000000000000000000000
000000000000000000000000000000000000
000001000000000000000000000000000000
000010000000000000001000000000000000
000010000000000100010000010000000010
000010000000001000011000010000000011
000010000000001100100000010000000011
000001000000001100100000000000000010
000000000000001100011000000000000001
000000000000001000011000000000000001
000000000000001000011000000000000010
000000000000001000100000000000100010
000000000000001100100000010001000010
000000000000001100100000100010000010
000000000010001100100000110010000001
000000000100001100011001000001100001
000001000110001100010000110001000010
000010000100001000001000010000000010
000011000010000100001000000000000011
000010000000000000000000000000000010
000001000000000000000000000000000001
000000000000000000000000000000000000
000000000000000000000000000000000000
000000000000000000000000000000000000
000000000000000000000000000000000000
000000000000000000000000000000000000
000000000000000000000000000000000000
000000000000000000000000000000000000
000000000000000000000000000000000000
000000000000000000000000000000000000
000001000000000000000000000000000000
000010000000000000001000000000000000
000011000000000100010000000000000001
000010000000001000011000000000000010
000010000000001100011000000000000011
000000000000001100011000000000000010
000000000000001100011000000000000010
000000000000001000011000000000000010
000000000000001000011000000000000010
000000000000001000100000000000100010
000000000000001000100000010001100010
000000000000001000100000110010000001
000000000000001100011001000010000001
000000000100001100010001000001100001
000001000110001100001000100000100010
000010000110001000001000010000000010
000011000100000100000000000000000011
000010000000000000000000000000000010
000001000000000000000000000000000001
000000000000000000000000000000000000
000000000000000000000000000000000000
000000000000000000000000000000000000
000000000000000000000000000000000000
000000000000000000000000000000000000
000000000000000000000000000000000000
000000000000000000000000000000000000
000000000000000000000000000000000000
000000000000000000000000000000000000
000001000000000000000000000000000000
000010000000000000001000000000000000
000010000000000100001000000000000001
000010000000001000001000000000000010
000010000000001100010000000000000011
000000000000001100010000000000000011
000000000000001000010000000000000010
000000000000001000010000000000000010
000000000000001000011000000000100010
000000000000001000100000000001000010
000000000000001000100000010010000010
000000000000001000100000110010000001
000000000000001100010001000010000001
000001000010001100001001000001000001
000010000100001000000000100000000010
000010000100000100000000010000000011
000011000100000100000000000000000011
000010000010000000000000000000000010
000001000000000000000000000000000001
000000000000000000000000000000000000
000000000000000000000000000000000000
000000000000000000000000000000000000
000000000000000000000000000000000000
000000000000000000000000000000000000
000000000000000000000000000000000000
000000000000000000000000000000000000
000000000000000000000000000000000000
000000000000000000000000000000000000
000000000000000000000000000000000000
000001000000000100000000000000000000
000010000000001000000000000000000001
000010000000001000000000000000000010
000010000000001100000000000000000011
000001000000001100000000000000000011
000000000000001100000000000000000011
000000000000001100001000000000000011
000000000000001000010000000000100011
000000000000001000100000000001100010
000000000000001100100000010010000010
000000000000001100011000110010000010
000001000010001100001001000001000010
000001000100001100000000110000100011
000010000110001000000000100000000011
000011000110000100000000000000000011
000010000100000000000000000000000010
000001000010000000000000000000000001
000000000000000000000000000000000000
000000000000000000000000000000000000
000000000000000000000000000000000000
000000000000000000000000000000000000
000000000000000000000000000000000000
000000000000000000000000000000000000
000000000000000000000000000000000000
000000000000000000000000000000000000
000000000000000000000000000000000000
000000000000000000000000000000000000
000000000000000000000000000000000000
000001000010000100000000000000000000
000010000010000100000000000000000000
000011000010001000000000000000000001
000010000010001100000000000000000010
000010000010001100000000000000000011
000001000000001100000000000000000011
000000000000001100001000000000000011
000000000000001100011000000001000011
000000000000001100100000000010000011
000000000010001100011000010010000011
000001000010001100010000110001100011
000001000100001100000001000000100011
000010000110001000000000110000000011
000011000110000100000000010000000011
000011000100000000000000000000000010
000010000010000000000000000000000001
000001000000000000000000000000000001
000000000000000000000000000000000000
000000000000000000000000000000000000
000000000000000000000000000000000000
000000000000000000000000000000000000
000000000000000000000000000000000000
000000000000000000000000000000000000
000000000000000000000000000000000000
000000000000000000000000000000000000
000000000000000000000000000000000000
000000000000000000000000000000000000
000000000000000000000000000000000000
000001000010000000000000000000000000
000010000100000100000000000000000000
000011000100001000000000000000000001
000011000100001100000000000000000001
000010000100001100000000000000000010
000010000010001100000000000000000011
000001000010001100001000000000100011
000001000010001100011000000001100011
000001000010001100100000000010000011
000001000100001100011000100010000011
000010000100001100001000110001000011
000010000110001000000001000000100011
000011000110000100000000110000000011
000011000110000000000000010000000010
000010000100000000000000000000000001
000001000010000000000000000000000000
000000000000000000000000000000000000
000000000000000000000000000000000000
000000000000000000000000000000000000
000000000000000000000000000000000000
000000000000000000000000000000000000
000000000000000000000000000000000000
000000000000000000000000000000000000
000000000000000000000000000000000000
000000000000000000000000000000000000
000000000000000000000000000000000000
000000000000000000000000000000000000
000000000000000000000000000000000000
000000000010000000000000000000000000
000001000100000100000000000000000000
000010000100000100000000000000000000
000011000110001000000000000000000000
000011000110001100000000000000000001
000010000110001100001000000000100010
000010000100001100010000000001000010
000010000110001100011000000010000011
000010000110001100011000010010000011
000010000110001000010000100001100010
000011000110000100000001000000100010
000011000110000000000001000000000010
000011000110000000000000100000000001
000010000100000000000000010000000001
000001000010000000000000000000000000
000000000000000000000000000000000000
000000000000000000000000000000000000
000000000000000000000000000000000000
000000000000000000000000000000000000
000000000000000000000000000000000000
000000000000000000000000000000000000
000000000000000000000000000000000000
000000000000000000000000000000000000
000000000000000000000000000000000000
000000000000000000000000000000000000
000000000000000000000000000000000000
000000000000000000000000000000000000
000000000000000000000000000000000000
000000000010000000000000000000000000
000000000010000000000000000000000000
000001000100000000000000000000000000
000010000100000100000000000000000000
000011000110000100000000000000000000
000011000110000100001000000000100000
000011000110001000011000000001100000
000011000110000100011000000010000000
000011000110000100011000010010000000
000011000110000100001000100001000000
000011000110000000000000110000100000
000010000100000000000001000000000000
000010000100000000000000100000000000
000001000010000000000000010000000000
000000000000000000000000000000000000
000000000000000000000000000000000000
000000000000000000000000000000000000
000000000000000000000000000000000000
000000000000000000000000000000000000
000000000000000000000000000000000000
000000000000000000000000000000000000
000000000000000000000000000000000000
000000000000000000000000000000000000
000000000000000000000000000000000000
000000000000000000000000000000000000
000000000000000000000000000000000000
000000000000000000000000000000000000
000000000000000000000000000000000000
000000000000000000000000000000000000
000000000010000000000000000000000000
000000000010000000000000000000000000
000001000100000000000000000000000000
000010000100000000000000000000100000
000010000100000000001000000001000000
000011000110000000011000000001100000
000011000110000000011000000010000000
000010000110000000010000010001100000
000010000100000000001000100000100000
000010000100000000000000110000000000
000001000010000000000000110000000000
000000000000000000000000100000000000
000000000000000000000000010000000000
000000000000000000000000000000000000
000000000000000000000000000000000000
000000000000000000000000000000000000
000000000000000000000000000000000000
000000000000000000000000000000000000
000000000000000000000000000000000000
000000000000000000000000000000000000
000000000000000000000000000000000000
000000000000000000000000000000000000
000000000000000000000000000000000000
000000000000000000000000000000000000
000000000000000000000000000000000000
000000000000000000000000000000000000
000000000000000000000000000000000000
000000000000000000000000000000000000
000000000000000000000000000000000000
000000000000000000000000000000000000
000000000000000000000000000000000000
000000000000000000000000000000100000
000000000000000000001000000001000000
000000000000000000010000000001100000
000000000000000000010000000001100000
000000000000000000001000010001000000
000000000000000000000000100000100000
000000000000000000000000110000000000
000000000000000000000000110000000000
000000000000000000000000100000000000
000000000000000000000000010000000000
000000000000000000000000000000000000
000000000000000000000000000000000000
000000000000000000000000000000000000
000000000000000000000000000000000000
000000000000000000000000000000000000
000000000000000000000000000000000000
000000000000000000000000000000000000
000000000000000000000000000000000000
000000000000000000000000000000000000
000000000000000000000000000000000000
000000000000000000000000000000000000
000000000000000000000000000000000000
000000000000000000000000000000000000
000000000000000000000000000000000000
000000000000000000000000000000000000
000000000000000000000000000000000000
000000000000000000000000000000000000
000000000000000000000000000000000000
000000000000000000000000000000100000
000000000000000000000000000001000000
000000000000000000000000000001100000
000000000000000000000000000001100000
000000000000000000000000010000100000
000000000000000000000000100000100000
000000000000000000000000110000000000
000000000000000000000000100000000000
000000000000000000000000100000000000
000000000000000000000000000000000000
000000000000000000000000000000000000
000000000000000000000000000000000000
000000000000000000000000000000000000
000000000000000000000000000000000000
000000000000000000000000000000000000
000000000000000000000000000000000000
000000000000000000000000000000000000
000000000000000000000000000000000000
000000000000000000000000000000000000
000000000000000000000000000000000000
000000000000000000000000000000000000
000000000000000000000000000000000000
000000000000000000000000000000000000
000000000000000000000000000000000000
000000000000000000000000000000000000
000000000000000000000000000000000000
000000000000000000000000000000000000
000000000000000000000000000000000000
000000000000000000000000000000100000
000000000000000000000000000000100000
000000000000000000000000000001000000
000000000000000000000000000001000000
000000000000000000000000010000100000
000000000000000000000000010000000000
000000000000000000000000100000000000
000000000000000000000000010000000000
000000000000000000000000010000000000
000000000000000000000000000000000000
000000000000000000000000000000000000
000000000000000000000000000000000000
000000000000000000000000000000000000
000000000000000000000000000000000000
000000000000000000000000000000000000
000000000000000000000000000000000000
000000000000000000000000000000000000
000000000000000000000000000000000000
000000000000000000000000000000000000
000000000000000000000000000000000000
000000000000000000000000000000000000
000000000000000000000000000000000000
000000000000000000000000000000000000
000000000000000000000000000000000000
000000000000000000000000000000000000
000000000000000000000000000000000000
000000000000000000000000000000000000
000000000000000000000000000000000000
000000000000000000000000000000000000
000000000000000000000000000000000000
000000000000000000000000000000000000
000000000000000000000000000000000000
000000000000000000000000000000000000
000000000000000000000000000000000000
000000000000000000000000000000000000
000000000000000000000000000000000000
000000000000000000000000000000000000
000000000000000000000000000000000000
000000000000000000000000000000000000
000000000000000000000000000000000000
000000000000000000000000000000000000
000000000000000000000000000000000000
000000000000000000000000000000000000
000000000000000000000000000000000000
000000000000000000000000000000000000
000000000000000000000000000000000000
