000000000000000000000000000000000000
000000000000000000000000000000000000
000000000000000000000000000000000000
000000000000000000000000000000000000
000000000000000000000000000000000000
000000000000000000000000000000000000
000000000000000000000000000000000000
000000000000000000000000000000000000
000000000000000000000000000000000000
000000000000000000000000000000000000
000000000000000000000000000000000000
000000000000000000000000000000000000
000000000000000000000000000000000000
000000000000000000000000000000000000
000000000000000000000000000000000000
000000000000000000000000000000000000
000000000000000000000000000000000000
000000000000000000000000000000000000
000000000000000000000000000000000000
000000000000000000000000000000000000
000000000000000000000000000000000000
000000000000000000000000000000000000
000000000000000000000000000000000000
000000000000000000000000000000000000
000000000000000000000000000000000000
000000000000000000000000000000000000
000000000000000000000000000000000000
000000000000000000000000000000000000
000000000000000000000000000000000000
000000000000000000000000000000000000
000000000000000000000000000000000000
000000000000000000000000000000000000
000000000000000000000000000000000000
000000000000000000000000000000000000
000000000000000000000000000000000000
000000000000000000000000000000000000
000000000000000000000000000000000000
000000000000000000000000000000000000
000000000000000000000000000000000000
000000000000000000000000000000000000
000000000000000000000000000000000000
000000000000000000000000000000000000
000000000000000000000000000000000000
000000000000000000000000000000000000
000000000000000000000000000000000000
000000000000000000000000000000000000
000000000000000000000000000000000000
000000000000000000000000000000000000
000000000000000000000000000000000000
000000000000000000000000000000000000
000000000000000000000000000000000000
000000000000000000000000000000000000
000000000000000000000000000000000000
000000000000000000000000000000000000
000000000000000000000000000000000000
000000000000000000000000000000000000
000000000000000000000000000000000000
000000000000000000000000000000000000
000000000000000000000000000000000000
000000000000000000000000000000000000
000000000000000000000000000000000000
000000000000000000000000000000000000
000000000000000000000000000000000000
000000000000000000000000000000000000
000000000000000000000000000000000000
000000000000000000000000000000000000
000000000000000000000000000000000000
000000000000000000000000000000000000
000000000000000000000000000000000000
000000000000000000000000000000000000
000000000000000000000000000000000000
000000000000000000000000000000000000
000000000000000000000000000000100000
000000000000000000000000000000100000
000000000000000000000000000000000000
000000000000000000000000000000000000
000000000000000000000000000000000000
000000000000000000000000000000000000
000000000000000000000000000000000000
000000000000000000000000000000000000
000000000000000000000000000000000000
000000000000000000000000000000000000
000000000000000000000000000000000000
000000000000000000000000000000000000
000000000000000000000000000000000000
000000000000000000000000000000000000
000000000000000000000000000000000000
000000000000000000000000000000000000
000000000000000000000000000000000000
000000000000000000000000000000000000
000000000000000000000000000000000000
000000000000000000000000000000000000
000000000000000000000000000000000000
000000000000000000000000000000000000
000000000000000000000000000000000000
000000000000000000000000000000000000
000000000000000000000000000000000000
000000000000000000000000000000000000
000000000000000000000000000000100000
000000000000000000000000000001000000
000000000000000000000000000001000000
000000000000000000000000000000100000
000000000000000000000000000000100000
000000000000000000000000000000000000
000000000000000000000000000000000000
000000000000000000000000000000000000
000000000000000000000000000000000000
000000000000000000000000000000000000
000000000000000000000000000000000000
000000000000000000000000000000000000
000000000000000000000000000000000000
000000000000000000000000000000000000
000000000000000000000000000000000000
000000000000000000000000000000000000
000000000000000000000000000000000000
000000000000000000000000000000000000
000000000000000000000000000000000000
000000000000000000000000000000000000
000000000000000000000000000000000000
000000000000000000000000000000000000
000000000000000000000000000000000000
000000000000000000000000000000000000
000000000010000100000000000000000000
000000000010000100000000000000000000
000000000010000100000000000000000000
000000000100001000000000010000100000
000000000100001000000000100001000000
000000000100001000000000100001000000
000001000010001000000000010001000000
000001000010000100000000000001000000
000001000010000100000000000000100000
000001000000000100000000000000100000
000000000000000000000000000000000000
000000000000000000000000000000000000
000000000000000000000000000000000000
000000000000000000000000000000000000
000000000000000000000000000000000000
000000000000000000000000000000000000
000000000000000000000000000000000000
000000000000000000000000000000000000
000000000000000000000000000000000000
000000000000000000000000000000000000
000000000000000000000000000000000000
000000000000000000000000000000000000
000000000000000000000000000000000000
000000000000000000000000000000000000
000000000000000000000000000000000000
000000000000000000000000000000000000
000000000000000000000000000000000000
000000000010000100000000000000000000
000000000100001000000000000000000000
000000000100001000000000000000000000
000000000110001100000000010000100000
000000000110001100000000110001000001
000001000110001100000001010001100000
000001000110001100000001010001100000
000010000110001100000000110001000000
000010000100001000000000010001000000
000010000010001000000000000000100000
000010000010001000000000000000000000
000001000000000100000000000000000000
000001000000000000000000000000000000
000000000000000000000000000000000000
000000000000000000000000000000000000
000000000000000000000000000000000000
000000000000000000000000000000000000
000000000000000000000000000000000000
000000000000000000000000000000000000
000000000000000000000000000000000000
000000000000000000000000000000000000
000000000000000000000000000000000000
000000000000000000000000000000000000
000000000000000000000000000000000000
000000000000000000000000000000000000
000000000000000000000000000000000000
000000000000000000000000000000000000
000000000010000100000000000000000001
000000000010000100000000000000000001
000000000100001000000000000000000010
000000000110001000000000010000100010
000001000110001100000000100001000011
000001000110001100000001000001100010
000010000110001100000001010001100011
000010000110001100000001100001100010
000010000110001100000000110001000010
000010000110001100000000100000100001
000010000100001000000000000000000001
000010000010001000001000000000000001
000010000000000100001000000000000000
000010000000000000001000000000000000
000001000000000000001000000000000000
000000000000000000000000000000000000
000000000000000000000000000000000000
000000000000000000000000000000000000
000000000000000000000000000000000000
000000000000000000000000000000000000
000000000000000000000000000000000000
000000000000000000000000000000000000
000000000000000000000000000000000000
000000000000000000000000000000000000
000000000000000000000000000000000000
000000000000000000000000000000000000
000000000000000000000000000000000000
000000000000000000000000000000000001
000000000010000100000000000000000001
000000000100000100000000000000000010
000000000100001000000000000000000011
000001000100001000000000010001000011
000010000100001000000000100001100100
000010000100001000000001000001100100
000011000100001000000001100001100011
000011000100001000001001100001000011
000011000100001000001001000000100011
000011000100001000001000010000100010
000010000010001000001000000000000010
000011000010000100001000000000000001
000011000000000100001000000000000001
000010000000000000010000000000000000
000001000000000000010000000000000000
000000000000000000001000000000000000
000000000000000000001000000000000000
000000000000000000000000000000000000
000000000000000000000000000000000000
000000000000000000000000000000000000
000000000000000000000000000000000000
000000000000000000000000000000000000
000000000000000000000000000000000000
000000000000000000000000000000000000
000000000000000000000000000000000000
000000000000000000000000000000000000
000000000000000000000000000000000000
000000000000000000000000000000000001
000000000010000100000000000000000011
000000000010000100000000000000000011
000001000100000100000000000000100011
000010000100001000000000010001100011
000010000010000100000000100010000011
000011000010000100001001000001100011
000011000010000100010001100001000011
000011000010000100010001100000100011
000010000010000100010001000000000011
000010000010000100010000010000000011
000010000010000100010000000000000010
000010000010000100010000000000000001
000010000000000100010000000000000001
000011000000000000010000000000000000
000010000000000000011000000000000000
000001000000000000010000000000000000
000000000000000000001000000000000000
000000000000000000001000000000000000
000000000000000000000000000000000000
000000000000000000000000000000000000
000000000000000000000000000000000000
000000000000000000000000000000000000
000000000000000000000000000000000000
000000000000000000000000000000000000
000000000000000000000000000000000000
000000000000000000000000000000000000
000000000000000000000000000000000001
000000000000000000000000000000000010
000000000010000000000000000000000011
000001000010000100000000000000000011
000010000100000100000000000001000011
000010000010000100000000000001100010
000011000010000100001000100001100001
000011000010000100010001000001000001
000010000010000100011001100000100001
000010000010000100011001100000000010
000010000010000100011001000000000010
000001000010000100011000010000000011
000001000010000100011000000000000010
000001000000000100011000000000000001
000010000000000000011000000000000001
000011000000000000011000000000000000
000010000000000000011000000000000000
000001000000000000010000000000000000
000000000000000000001000000000000000
000000000000000000000000000000000000
000000000000000000000000000000000000
000000000000000000000000000000000000
000000000000000000000000000000000000
000000000000000000000000000000000000
000000000000000000000000000000000000
000000000000000000000000000000000000
000000000000000000000000000000000000
000000000000000000000000000000000000
000000000000000000000000000000000001
000000000000000000000000000000000010
000001000010000000000000000000000011
000010000010000100000000000000100011
000010000100000100001000000001100010
000011000100000100010000010010000001
000011000010000100011000100001100000
000010000010000100011001010001000000
000010000100000100011001100000000001
000001000010000100011001100000000001
000001000010000100011001000000000010
000000000010000100010000010000000010
000000000010000100010000000000000010
000001000000000100010000000000000001
000010000000000000010000000000000001
000011000000000000010000000000000000
000011000000000000010000000000000000
000010000000000000010000000000000000
000000000000000000001000000000000000
000000000000000000000000000000000000
000000000000000000000000000000000000
000000000000000000000000000000000000
000000000000000000000000000000000000
000000000000000000000000000000000000
000000000000000000000000000000000000
000000000000000000000000000000000000
000000000000000000000000000000000000
000000000000000000000000000000000000
000000000000000000000000000000000001
000001000000000000000000000000000010
000010000010000000000000000000000010
000011000100000100001000000001000010
000011000100001000010000000001100001
000011000100001000011000000001100001
000010000100001000011000100001000000
000010000100001000011001010000100001
000001000100001000010001100000000001
000000000100001000010001100000000001
000000000100001000001001000000000010
000000000100001000001000010000100010
000000000010000100001000000000100010
000001000010000100001000000000100001
000010000000000000001000000000100000
000011000000000000001000000000000000
000011000000000000001000000000000000
000010000000000000001000000000000000
000000000000000000000000000000000000
000000000000000000000000000000000000
000000000000000000000000000000000000
000000000000000000000000000000000000
000000000000000000000000000000000000
000000000000000000000000000000000000
000000000000000000000000000000000000
000000000000000000000000000000000000
000000000000000000000000000000000000
000000000000000000000000000000000000
000000000000000000000000000000000000
000001000000000000000000000000000001
000010000010000000001000000000100010
000011000100000100010000000001100010
000011000110001000011000000010000010
000010000110001100011000000001100001
000001000110001100011000100000100001
000000000110001100010001010000000001
000000000100001100010001100000000010
000000000100001100001001100000000010
000000000100001100001000110000100010
000000000100001000001000000000100010
000000000100001000001000000001000010
000000000010000100001000000001000001
000010000010000000001000000000100000
000011000000000000001000000000100000
000011000000000000001000000000000000
000010000000000000000000000000000000
000000000000000000000000000000000000
000000000000000000000000000000000000
000000000000000000000000000000000000
000000000000000000000000000000000000
000000000000000000000000000000000000
000000000000000000000000000000000000
000000000000000000000000000000000000
000000000000000000000000000000000000
000000000000000000000000000000000000
000000000000000000000000000000000000
000001000000000000000000000000000000
000010000000000000001000000000000001
000011000010000100001000000001000001
000011000100000100011000000001100010
000010000100001000011000000001100010
000001000100001000011000000001000010
000000000100001100011000100000100010
000000000100001100010001010000000010
000000000100001100010001100000100010
000000000100001100001001100000100010
000000000100001100001000110001000010
000000000100001100001000000001000010
000000000110001000001000000001100010
000001000100000100001000000001100001
000010000010000000001000000001000000
000011000000000000001000000000100000
000011000000000000000000000000000000
000010000000000000000000000000000000
000000000000000000000000000000000000
000000000000000000000000000000000000
000000000000000000000000000000000000
000000000000000000000000000000000000
000000000000000000000000000000000000
000000000000000000000000000000000000
000000000000000000000000000000000000
000000000000000000000000000000000000
000000000000000000000000000000000000
000000000000000000000000000000000000
000010000000000000000000000000000000
000011000000000000001000000000100000
000011000010000000010000000001000001
000010000100000100011000000001100010
000001000100001000011000000001100010
000000000010001000011000010001000011
000000000010001000010000100000100011
000000000010001000010001010000100011
000000000010001000010001100001000011
000000000010001000010001100001000011
000000000010001000001000110001000011
000000000100001100001000000001100010
000000000100001100001000000001100001
000001000110001000001000000001100001
000010000100000100001000000001000000
000011000010000000001000000001000000
000010000000000000000000000000100000
000001000000000000000000000000000000
000000000000000000000000000000000000
000000000000000000000000000000000000
000000000000000000000000000000000000
000000000000000000000000000000000000
000000000000000000000000000000000000
000000000000000000000000000000000000
000000000000000000000000000000000000
000000000000000000000000000000000000
000000000000000000000000000000000000
000001000000000000000000000000000000
000010000000000000001000000000000000
000011000000000000001000000000100000
000010000010000000010000000001000001
000010000010000000010000000001100001
000001000010000100010000000001100010
000000000010000100010000000000100010
000000000000000100010000110000100011
000000000000000100010001100001000010
000000000000000100010001100001000010
000000000000000100010001100001000011
000000000000000100010000110001100011
000000000010001000001000000001000011
000001000100001100001000000001000010
000010000110001100001000000001100001
000011000110001000001000000001100000
000011000100000100000000000001000000
000010000010000000000000000000100000
000001000000000000000000000000000000
000000000000000000000000000000000000
000000000000000000000000000000000000
000000000000000000000000000000000000
000000000000000000000000000000000000
000000000000000000000000000000000000
000000000000000000000000000000000000
000000000000000000000000000000000000
000000000000000000000000000000000000
000000000000000000000000000000000000
000010000000000000000000000000000000
000011000000000000001000000000000000
000011000000000000001000000000100000
000010000010000000010000000001100000
000001000010000000001000000001100000
000000000010000000001000000001100001
000000000000000000001000010001000001
000000000000000000001000110001000010
000000000000000000001001100001000010
000000000000000000010001110001000010
000000000000000000010001100001000010
000000000000000000010000100001000011
000001000000000100010000000001000011
000010000010001100001000000001000010
000010000110001100001000000001100001
000011000110001000001000000001100000
000010000100000100000000000001000000
000001000010000000000000000000100000
000000000000000000000000000000000000
000000000000000000000000000000000000
000000000000000000000000000000000000
000000000000000000000000000000000000
000000000000000000000000000000000000
000000000000000000000000000000000000
000000000000000000000000000000000000
000000000000000000000000000000000000
000000000000000000000000000000000000
000000000000000000000000000000000000
000010000000000000001000000000000000
000011000000000000001000000000000000
000011000000000000010000000000100000
000010000010000000001000000001000000
000001000010000000001000000001100000
000000000000000000001000000001100000
000000000000000000001000010001000001
000000000000000000001000110001000001
000000000000000000001001100001000001
000000000000000000010001100001000001
000000000000000000011001010001000001
000001000000000000011000100001000010
000010000000000100010000000001000011
000010000010001000001000000001100011
000011000100001100001000000001100010
000011000110001000000000000001100000
000010000100000100000000000001000000
000001000010000000000000000000000000
000000000000000000000000000000000000
000000000000000000000000000000000000
000000000000000000000000000000000000
000000000000000000000000000000000000
000000000000000000000000000000000000
000000000000000000000000000000000000
000000000000000000000000000000000000
000000000000000000000000000000000000
000000000000000000000000000000000000
000001000000000000000000000000000000
000010000000000000001000000000000000
000011000000000100010000000000000000
000010000010000100010000000000100000
000010000010000100010000000001000000
000001000010000000001000000001100000
000000000000000000001000000001100000
000000000000000000001000010001100001
000000000000000000010000110001000001
000000000000000000010001010001000001
000001000000000000011001100001000001
000001000000000000011001010001000001
000010000000000000011000100001000010
000010000000000100010000010001100011
000011000010001000001000000001100011
000011000100001100000000000001100010
000010000110001000000000000001000001
000001000100000100000000000000100000
000000000010000000000000000000000000
000000000000000000000000000000000000
000000000000000000000000000000000000
000000000000000000000000000000000000
000000000000000000000000000000000000
000000000000000000000000000000000000
000000000000000000000000000000000000
000000000000000000000000000000000000
000000000000000000000000000000000000
000000000000000000000000000000000000
000001000000000000000000000000000000
000010000000000100001000000000000000
000011000010000100011000000000000000
000010000010000100011000000000100000
000010000100000100011000000001000000
000001000100000100011000000001100000
000001000010000100010000000001100000
000001000010000000011000010001100001
000001000000000000011000110001100001
000001000000000000011001010001100000
000010000000000000011001100001100000
000010000000000000011001010001100001
000011000000000100010000100001100010
000011000010001000001000010001100011
000010000100001100000000000001100011
000010000110001100000000000001000010
000001000110001000000000000000100001
000000000100000100000000000000000000
000000000000000000000000000000000000
000000000000000000000000000000000000
000000000000000000000000000000000000
000000000000000000000000000000000000
000000000000000000000000000000000000
000000000000000000000000000000000000
000000000000000000000000000000000000
000000000000000000000000000000000000
000000000000000000000000000000000000
000000000000000000000000000000000000
000001000000000000000000000000000000
000010000000000100001000000000000000
000010000010000100010000000000000000
000011000010001000011000000000000000
000010000100001000011000000000100000
000010000100001000011000000001000000
000010000100001000100000010001100000
000010000010000100100000010001100001
000010000010000100011001000010000001
000010000010000100011001010001100000
000011000010000100011001100001100000
000011000010001000010001010001100001
000011000100001000001000110001100010
000010000100001100000000010001100011
000010000110001100000000000001000011
000001000110001100000000000000100010
000000000100000100000000000000000001
000000000010000000000000000000000000
000000000000000000000000000000000000
000000000000000000000000000000000000
000000000000000000000000000000000000
000000000000000000000000000000000000
000000000000000000000000000000000000
000000000000000000000000000000000000
000000000000000000000000000000000000
000000000000000000000000000000000000
000000000000000000000000000000000000
000000000000000000000000000000000000
000000000000000000000000000000000000
000001000000000100001000000000000000
000010000010000100001000000000000000
000011000010001000010000000000000000
000011000100001100010000000000000000
000010000110001100011000000000100000
000011000110001100011000000001000001
000011000110001100011000010001100001
000011000110001100010000110001100001
000011000100001100010001100001100001
000010000100001100001001100001100001
000010000110001100000001010001100001
000010000110001100000000100001000010
000001000110001100000000010000100011
000000000110001100000000000000100011
000000000110000100000000000000000010
000000000010000000000000000000000001
000000000000000000000000000000000000
000000000000000000000000000000000000
000000000000000000000000000000000000
000000000000000000000000000000000000
000000000000000000000000000000000000
000000000000000000000000000000000000
000000000000000000000000000000000000
000000000000000000000000000000000000
000000000000000000000000000000000000
000000000000000000000000000000000000
000000000000000000000000000000000000
000000000000000000000000000000000000
000000000000000000000000000000000000
000001000000000100000000000000000000
000010000010000100001000000000000000
000010000100001000001000000000000000
000010000100001100001000000000000000
000010000110001100001000000000000001
000010000110001100001000010000100001
000010000110001100001000110000100001
000010000110001100000001010000100001
000010000110010000000001100000100010
000001000110001100000001000000100010
000000000110001100000000100000100011
000000000110001000000000010000000011
000000000100000100000000000000000011
000000000010000000000000000000000001
000000000000000000000000000000000001
000000000000000000000000000000000000
000000000000000000000000000000000000
000000000000000000000000000000000000
000000000000000000000000000000000000
000000000000000000000000000000000000
000000000000000000000000000000000000
000000000000000000000000000000000000
000000000000000000000000000000000000
000000000000000000000000000000000000
000000000000000000000000000000000000
000000000000000000000000000000000000
000000000000000000000000000000000000
000000000000000000000000000000000000
000000000000000000000000000000000000
000001000000000000000000000000000000
000001000000000100000000000000000000
000001000010000100000000000000000000
000001000010001000000000000000000001
000001000100001000000000010000000001
000001000110001000000000100000000010
000001000110001100000001000000000010
000000000110001000000001010000000010
000000000110001000000001000000000011
000000000100000100000000100000000011
000000000010000100000000000000000011
000000000000000000000000000000000010
000000000000000000000000000000000001
000000000000000000000000000000000000
000000000000000000000000000000000000
000000000000000000000000000000000000
000000000000000000000000000000000000
000000000000000000000000000000000000
000000000000000000000000000000000000
000000000000000000000000000000000000
000000000000000000000000000000000000
000000000000000000000000000000000000
000000000000000000000000000000000000
000000000000000000000000000000000000
000000000000000000000000000000000000
000000000000000000000000000000000000
000000000000000000000000000000000000
000000000000000000000000000000000000
000000000000000000000000000000000000
000000000000000000000000000000000000
000000000000000000000000000000000000
000000000000000000000000000000000001
000000000000000000000000000000000001
000000000000000000000000000000000010
000000000000000000000000010000000010
000000000000000000000000010000000010
000000000000000000000000010000000010
000000000000000000000000000000000010
000000000000000000000000000000000010
000000000000000000000000000000000001
000000000000000000000000000000000000
000000000000000000000000000000000000
000000000000000000000000000000000000
000000000000000000000000000000000000
000000000000000000000000000000000000
000000000000000000000000000000000000
000000000000000000000000000000000000
000000000000000000000000000000000000
000000000000000000000000000000000000
000000000000000000000000000000000000
000000000000000000000000000000000000
000000000000000000000000000000000000
000000000000000000000000000000000000
000000000000000000000000000000000000
000000000000000000000000000000000000
000000000000000000000000000000000000
000000000000000000000000000000000000
000000000000000000000000000000000000
000000000000000000000000000000000000
000000000000000000000000000000000000
000000000000000000000000000000000000
000000000000000000000000000000000001
000000000000000000000000000000000001
000000000000000000000000000000000001
000000000000000000000000000000000001
000000000000000000000000000000000001
000000000000000000000000000000000000
000000000000000000000000000000000000
000000000000000000000000000000000000
000000000000000000000000000000000000
000000000000000000000000000000000000
000000000000000000000000000000000000
000000000000000000000000000000000000
000000000000000000000000000000000000
000000000000000000000000000000000000
000000000000000000000000000000000000
000000000000000000000000000000000000
000000000000000000000000000000000000
000000000000000000000000000000000000
000000000000000000000000000000000000
000000000000000000000000000000000000
000000000000000000000000000000000000
000000000000000000000000000000000000
000000000000000000000000000000000000
000000000000000000000000000000000000
000000000000000000000000000000000000
000000000000000000000000000000000000
000000000000000000000000000000000000
000000000000000000000000000000000000
000000000000000000000000000000000000
000000000000000000000000000000000000
000000000000000000000000000000000000
000000000000000000000000000000000000
000000000000000000000000000000000000
000000000000000000000000000000000000
000000000000000000000000000000000000
000000000000000000000000000000000000
000000000000000000000000000000000000
000000000000000000000000000000000000
000000000000000000000000000000000000
000000000000000000000000000000000000
000000000000000000000000000000000000
000000000000000000000000000000000000
000000000000000000000000000000000000
000000000000000000000000000000000000
000000000000000000000000000000000000
000000000000000000000000000000000000
000000000000000000000000000000000000
000000000000000000000000000000000000
000000000000000000000000000000000000
000000000000000000000000000000000000
000000000000000000000000000000000000
000000000000000000000000000000000000
000000000000000000000000000000000000
000000000000000000000000000000000000
000000000000000000000000000000000000
000000000000000000000000000000000000
000000000000000000000000000000000000
000000000000000000000000000000000000
000000000000000000000000000000000000
000000000000000000000000000000000000
000000000000000000000000000000000000
000000000000000000000000000000000000
000000000000000000000000000000000000
000000000000000000000000000000000000
000000000000000000000000000000000000
000000000000000000000000000000000000
000000000000000000000000000000000000
000000000000000000000000000000000000
000000000000000000000000000000000000
000000000000000000000000000000000000
000000000000000000000000000000000000
000000000000000000000000000000000000
