000000000000000000000000000000000000
000000000000000000000000000000000000
000000000000000000000000000000000000
000000000000000000000000000000000000
000000000000000000000000000000000000
000000000000000000000000000000000000
000000000000000000000000000000000000
000000000000000000000000000000000000
000000000000000000000000000000000000
000000000000000000000000000000000000
000000000000000000000000000000000000
000000000000000000000000000000000000
000000000000000000000000000000000000
000000000000000000000000000000000000
000000000000000000000000000000000000
000000000000000000000000000000000000
000000000000000000000000000000000000
000000000000000000000000000000000000
000000000000000000000000000000000000
000000000000000000000000000000000000
000000000000000000000000000000000000
000000000000000000000000000000000000
000000000000000000000000000000000000
000000000000000000000000000000000000
000000000000000000000000000000000000
000000000000000000000000000000000000
000000000000000000000000000000000000
000000000000000000000000000000000000
000000000000000000000000000000000000
000000000000000000000000000000000000
000000000000000000000000000000000000
000000000000000000000000000000000000
000000000000000000000000000000000000
000000000000000000000000000000000000
000000000000000000000000000000000000
000000000000000000000000000000000000
000000000000000000000000000000000000
000000000000000000000000000000000000
000000000000000000000000000000000000
000000000000000000000000000000000000
000000000000000000000000000000000000
000000000000000000000000000000000000
000000000000000000000000000000000000
000000000000000000000000000000000000
000000000000000000000000000000000000
000000000000000000000000000000000000
000000000000000000000000000000000000
000000000000000000000000000000000000
000000000000000000000000000000000000
000000000000000000000000000000000000
000000000000000000000000000000000000
000000000000000000000000000000000000
000000000000000000000000000000000000
000000000000000000000000000000000000
000000000000000000000000000000000000
000000000000000000000000000000000000
000000000000000000000000000000000000
000000000000000000000000000000000000
000000000000000000000000000000000000
000000000000000000000000000000000000
000000000000000000000000000000000000
000000000000000000000000000000000000
000000000000000000000000000000000000
000000000000000000000000000000000000
000000000000000000000000000000000000
000000000000000000000000000000000000
000000000000000000000000000000000000
000000000000000000000000000000000000
000000000000000000000000000000000000
000000000000000000000000000000000000
000000000000000000000000000000000000
000000000000000000000000000000000000
000000000000000000000000000000000000
000000000000000000000000010000000000
000000000000000000000000000000000000
000000000000000000000000000000000000
000000000000000000000000000000000000
000000000000000000000000000000000000
000000000000000000000000000000000000
000000000000000000000000000000000000
000000000000000000000000000000000000
000000000000000000000000000000000000
000000000000000000000000000000000000
000000000000000000000000000000000000
000000000000000000000000000000000000
000000000000000000000000000000000000
000000000000000000000000000000000000
000000000000000000000000000000000000
000000000000000000000000000000000000
000000000000000000000000000000000000
000000000000000000000000000000000000
000000000000000000000000000000000000
000000000000000000000000000000000000
000000000000000000000000000000000000
000000000000000000000000000000000000
000000000000000000000000000000000000
000000000000000000000000000000000000
000000000000000000000000000000000000
000000000000000000000000010000000000
000000000000000000000000010000000000
000000000000000000000000100000000000
000000000000000000000000100000000000
000000000000000000000000010000000000
000000000000000000000000010000000000
000000000000000000000000000000000000
000000000000000000000000000000000000
000000000000000000000000000000000000
000000000000000000000000000000000000
000000000000000000000000000000000000
000000000000000000000000000000000000
000000000000000000000000000000000000
000000000000000000000000000000000000
000000000000000000000000000000000000
000000000000000000000000000000000000
000000000000000000000000000000000000
000000000000000000000000000000000000
000000000000000000000000000000000000
000000000000000000000000000000000000
000000000000000000000000000000000000
000000000000000000000000000000000000
000000000000000000000000000000000000
000000000000000000000000000000000000
000000000000000000000000000000000000
000000000000000000000000000000000000
000001000010000000000000000000000000
000010000100000000000000010000000000
000011000110000000000000100000000000
000010000100000000000000100000000000
000001000000000000000000110000100000
000000000000000000000000100001000000
000000000000000000000000010001000000
000000000000000000000000010001000000
000000000000000000000000000000100000
000000000000000000000000000000000000
000000000000000000000000000000000000
000000000000000000000000000000000000
000000000000000000000000000000000000
000000000000000000000000000000000000
000000000000000000000000000000000000
000000000000000000000000000000000000
000000000000000000000000000000000000
000000000000000000000000000000000000
000000000000000000000000000000000000
000000000000000000000000000000000000
000000000000000000000000000000000000
000000000000000000000000000000000000
000000000000000000000000000000000000
000000000000000000000000000000000000
000000000000000000000000000000000000
000000000000000000000000000000000000
000000000000000000000000000000000000
000000000010000000000000000000000000
000010000110000000000000000000000000
000100001010000000000000100000000000
000101001010000000000000100000000001
000101000110000000000000110000100001
000010000100000000000000110001000010
000000000000000000000000100010000010
000000000000000000000000010010100010
000000000000000000000000000001100010
000000000000000000000000000001000010
000000000000000000000000000000000001
000000000000000000000000000000000000
000000000000000000000000000000000000
000000000000000000000000000000000000
000000000000000000000000000000000000
000000000000000000000000000000000000
000000000000000000000000000000000000
000000000000000000000000000000000000
000000000000000000000000000000000000
000000000000000000000000000000000000
000000000000000000000000000000000000
000000000000000000000000000000000000
000000000000000000000000000000000000
000000000000000000000000000000000000
000000000000000000000000000000000000
000000000000000000000000000000000000
000000000000000000000000000000000000
000000000000000000000000000000000000
000000000010000000000000000000000000
000010000110000000001000010000000001
000100001010000000001000110000000010
000110001100000000001000110000000010
000110001000000000001000110000100011
000011000100000000001000100001100011
000001000000000000001000010010100011
000000000000000000000000010010100011
000000000000000000000000000010000011
000000000000000000000000000001000010
000000000000000000000000000000100010
000000000000000000000000000000000001
000000000000000000000000000000000001
000000000000000000000000000000000000
000000000000000000000000000000000000
000000000000000000000000000000000000
000000000000000000000000000000000000
000000000000000000000000000000000000
000000000000000000000000000000000000
000000000000000000000000000000000000
000000000000000000000000000000000000
000000000000000000000000000000000000
000000000000000000000000000000000000
000000000000000000000000000000000000
000000000000000100000000000000000000
000000000000000100001000000000000000
000000000000000100001000000000000000
000000000000000100001000000000000000
000000000010000100010000010000000001
000001000110000100011000100000000010
000100001100000100011000110000000011
000111001100000100100000110000000011
000110001010000100100000100001000011
000011000100000100100000010010000011
000001000000000100011000010011000011
000000000000000100010000000010100011
000000000000000100001000000001100011
000000000000000100000000000000100011
000000000000000000000000000000000010
000000000000000000000000000000000010
000000000000000000000000000000000001
000000000000000000000000000000000000
000000000000000000000000000000000000
000000000000000000000000000000000000
000000000000000000000000000000000000
000000000000000000000000000000000000
000000000000000000000000000000000000
000000000000000000000000000000000000
000000000000000000000000000000000000
000000000000000000000000000000000000
000000000000000100000000000000000000
000000000000000100000000000000000000
000000000000001000001000000000000000
000000000000001000001000000000000000
000000000000001100010000000000000000
000000000000001100011000010000000001
000000000010001100100000100000000010
000010000110001100100000110000000011
000100001100001100100000110000000011
000111001100001100100000110000000011
000110001010001100100000100001000010
000011000100001100100000010010100010
000000000000001100100000000011000001
000000000000001100011000000010100010
000000000000001100010000000001100010
000000000000001000001000000000100010
000000000000000100000000000000000011
000000000000000000000000000000000010
000000000000000000000000000000000001
000000000000000000000000000000000000
000000000000000000000000000000000000
000000000000000000000000000000000000
000000000000000000000000000000000000
000000000000000000000000000000000000
000000000000000000000000000000000000
000000000000000000000000000000000000
000000000000000000000000000000000000
000000000000000100000000000000000000
000000000000000100000000000000000000
000000000000001000000000000000000000
000000000000001100001000000000000000
000000000000001100010000000000000000
000000000000010000011000000000000000
000000000000010000100000010000000001
000000000010010000100000110000000010
000001000100010000100000110000000011
000100001100010000100000110000000010
000111001110010000011000100000100010
000110001010010000011000010010000001
000011000100010000100000000011000001
000000000000010000100000000011000001
000000000000010000100000000010000001
000000000000010000010000000001000010
000000000000001100001000000000000010
000000000000001000000000000000000011
000000000000000100000000000000000010
000000000000000000000000000000000001
000000000000000000000000000000000000
000000000000000000000000000000000000
000000000000000000000000000000000000
000000000000000000000000000000000000
000000000000000000000000000000000000
000000000000000000000000000000000000
000000000000000000000000000000000000
000000000000000000000000000000000000
000000000000000100000000000000000000
000000000000000100000000000000000000
000000000000001000000000000000000000
000000000000001100001000000000000000
000000000000001100010000000000000000
000000000000010000011000010000000000
000000000000010000011000100000000001
000000000000001100011000110000000010
000001000100010000010000110000000010
000100001010001100010000100000000010
000111001110001100010000010001000001
000110001010001100010000000010100000
000011000100001100011000000011000000
000000000000001100100000000010100001
000000000000001100100000000001100010
000000000000010000010000000000100010
000000000000001100001000000000000011
000000000000001000000000000000000010
000000000000000100000000000000000001
000000000000000000000000000000000001
000000000000000000000000000000000000
000000000000000000000000000000000000
000000000000000000000000000000000000
000000000000000000000000000000000000
000000000000000000000000000000000000
000000000000000000000000000000000000
000000000000000000000000000000000000
000000000000000000000000000000000000
000000000000000000000000000000000000
000000000000000100000000000000000000
000000000000001000000000000000000000
000000000000001100000000000000000000
000000000000001100010000000000000000
000000000000001100010000010000000000
000000000000001100011000110000000001
000000000000001000010000110000000010
000001000100001000001000110000000010
000101001100001000000000100000100010
000111001110000100001000000010000001
000110001010001000010000000011000001
000011000100001000100000000011000001
000000000000001100101000000010000010
000000000000001100100000010000100010
000000000000010000010000010000000011
000000000000001100000000000000000010
000000000000001000000000000000000001
000000000000000000000000000000000001
000000000000000000000000000000000000
000000000000000000000000000000000000
000000000000000000000000000000000000
000000000000000000000000000000000000
000000000000000000000000000000000000
000000000000000000000000000000000000
000000000000000000000000000000000000
000000000000000000000000000000000000
000000000000000000000000000000000000
000000000000000000000000000000000000
000000000000000100000000000000000000
000000000000001000000000000000000000
000000000000001000000000000000000000
000000000000001000001000010000000000
000000000000001000010000100000000000
000000000000000100010000110000000001
000000000010000100010000110000000010
000001000100000100001000100000000010
000101001100000000001000010001000010
000111001110000000001000010010100001
000110001100000000010000010011000001
000010000100000100100000010010100010
000000000000001000101000010001100011
000000000000001100011000010000000011
000000000000010000001000010000000011
000000000000001100000000010000000010
000000000000000100000000010000000001
000000000000000000000000000000000000
000000000000000000000000000000000000
000000000000000000000000000000000000
000000000000000000000000000000000000
000000000000000000000000000000000000
000000000000000000000000000000000000
000000000000000000000000000000000000
000000000000000000000000000000000000
000000000000000000000000000000000000
000000000000000000000000000000000000
000000000000000000000000000000000000
000000000000000000000000000000000000
000000000000000100000000000000000000
000000000000000100000000000000000000
000000000000000100001000010000000000
000000000000000100010000110000000000
000000000000000000010000110000000001
000000000000000000010000110000000010
000001000100000000001000100000100010
000101001100000000001000010010000011
000111001100000000010000010011000010
000110001100000000011000100011000010
000010000100000100100000100010000011
000000000000001100100000100000100011
000000000000010000011000100000000010
000000000000010000001000100000000010
000000000000001000000000100000000001
000000000000000100000000010000000000
000000000000000000000000000000000000
000000000000000000000000000000000000
000000000000000000000000000000000000
000000000000000000000000000000000000
000000000000000000000000000000000000
000000000000000000000000000000000000
000000000000000000000000000000000000
000000000000000000000000000000000000
000000000000000000000000000000000000
000000000000000000000000000000000000
000000000000000000000000000000000000
000000000000000000000000000000000000
000000000000000000000000000000000000
000000000000000100000000010000000000
000000000000000100001000100000000000
000000000000000000001000110000000000
000000000000000000010000110000000001
000000000000000000010000110000000010
000001000100000000001000100001100011
000110001100000000010000100011000011
001000001110000000010000100011000011
000110001100000100100000100011000011
000010000100001000101000110001100011
000000000000001100100000110000000010
000000000000010000010000110000000001
000000000000001100000000110000000000
000000000000001000000000100000000000
000000000000000000000000100000000000
000000000000000000000000010000000000
000000000000000000000000000000000000
000000000000000000000000000000000000
000000000000000000000000000000000000
000000000000000000000000000000000000
000000000000000000000000000000000000
000000000000000000000000000000000000
000000000000000000000000000000000000
000000000000000000000000000000000000
000000000000000000000000000000000000
000000000000000000000000000000000000
000000000000000000000000000000000000
000000000000000000000000000000000000
000000000000000000000000010000000000
000000000000000000000000100000000000
000000000000000000001000110000000000
000000000000000000001000110000000001
000000000000000000010000100000100010
000010000100000000001000100010000011
000110001100000000001000100011000011
000111001110000000010000110011000011
000110001100000100100000110010100011
000010000100001100101000110000100010
000000000000010000100000100000000001
000000000000010000010000110000000000
000000000000001000000000110000000000
000000000000000100000000110000000000
000000000000000000000000100000000000
000000000000000000000000010000000000
000000000000000000000000000000000000
000000000000000000000000000000000000
000000000000000000000000000000000000
000000000000000000000000000000000000
000000000000000000000000000000000000
000000000000000000000000000000000000
000000000000000000000000000000000000
000000000000000000000000000000000000
000000000000000000000000000000000000
000000000000000000000000000000000000
000000000000000000000000000000000000
000000000000000000000000000000000000
000000000000000000000000010000000000
000000000000000000000000100000000000
000000000000000000000000110000000001
000000000000000000001000110000100010
000000000000000000001000100001100011
000010000100000000001000100011000011
000110001010000000001000100011000011
000111001110000100011000100010100011
000101001100001000101000100001000010
000001000100001100101000100000000001
000000000000010000011000100000000001
000000000000010000001000100000000000
000000000000001000000000110000000000
000000000000000000000000110000000000
000000000000000000000000100000000000
000000000000000000000000010000000000
000000000000000000000000000000000000
000000000000000000000000000000000000
000000000000000000000000000000000000
000000000000000000000000000000000000
000000000000000000000000000000000000
000000000000000000000000000000000000
000000000000000000000000000000000000
000000000000000000000000000000000000
000000000000000000000000000000000000
000000000000000000000000000000000000
000000000000000000000000000000000000
000000000000000000000000000000000000
000000000000000000000000010000000000
000000000000000000000000100000000001
000000000000000000000000110000000010
000000000000000000000000110000100011
000001000000000000000000100010000011
000010000100000000001000100011000011
000110001010000000001000100011000010
000111001110000100011000100010000010
000101001100001100101000100000100010
000010000100010000100000010000000001
000000000000010000010000100000000001
000000000000001100000000110000000000
000000000000000100000000110000000000
000000000000000000000000110000000000
000000000000000000000000100000000000
000000000000000000000000010000000000
000000000000000000000000000000000000
000000000000000000000000000000000000
000000000000000000000000000000000000
000000000000000000000000000000000000
000000000000000000000000000000000000
000000000000000000000000000000000000
000000000000000000000000000000000000
000000000000000000000000000000000000
000000000000000000000000000000000000
000000000000000000000000000000000000
000000000000000000000000000000000000
000000000000000000000000000000000000
000000000000000000000000010000000001
000000000000000000000000100000000010
000000000000000000000000110000100011
000000000000000000000000110001100011
000001000000000000000000110011000010
000011000100000000000000110011000010
000110001010000100001000100010100010
000111001100001000100000100001000010
000101001010001100101000100000000010
000010000110010000100000100000000001
000000000010001100001000110000000001
000000000000001000000000110000000000
000000000000000000000000110000000000
000000000000000000000000100000000000
000000000000000000000000010000000000
000000000000000000000000000000000000
000000000000000000000000000000000000
000000000000000000000000000000000000
000000000000000000000000000000000000
000000000000000000000000000000000000
000000000000000000000000000000000000
000000000000000000000000000000000000
000000000000000000000000000000000000
000000000000000000000000000000000000
000000000000000000000000000000000000
000000000000000000000000000000000000
000000000000000000000000000000000000
000000000000000000000000000000000001
000000000000000000000000010000000010
000000000000000000000000100000000011
000000000000000000000000110001000011
000000000000000000000000110010000010
000001000010000000000000110011000001
000010000100000000000000110011000001
000110001010000100010000110010000010
000111001100001100101000110000100010
000101001100010000101000110000000010
000010000110010000011000110000000010
000000000010001000001000110000000001
000000000000000100000000110000000000
000000000000000000000000100000000000
000000000000000000000000010000000000
000000000000000000000000000000000000
000000000000000000000000000000000000
000000000000000000000000000000000000
000000000000000000000000000000000000
000000000000000000000000000000000000
000000000000000000000000000000000000
000000000000000000000000000000000000
000000000000000000000000000000000000
000000000000000000000000000000000000
000000000000000000000000000000000000
000000000000000000000000000000000000
000000000000000000000000000000000000
000000000000000000000000000000000000
000000000000000000000000000000000001
000000000000000000000000000000000010
000000000000000000000000010000100011
000000000000000000000000100001100011
000000000000000000000000110010100010
000001000010000000000000110011000001
000011000100000100001000110010100001
000110001010001000011000110001100010
000110001100001100101000110000100010
000101001100010000100000110000000010
000010000110001100010000110000000001
000001000010000100000000110000000001
000000000000000000000000100000000000
000000000000000000000000010000000000
000000000000000000000000000000000000
000000000000000000000000000000000000
000000000000000000000000000000000000
000000000000000000000000000000000000
000000000000000000000000000000000000
000000000000000000000000000000000000
000000000000000000000000000000000000
000000000000000000000000000000000000
000000000000000000000000000000000000
000000000000000000000000000000000000
000000000000000000000000000000000000
000000000000000000000000000000000000
000000000000000000000000000000000000
000000000000000000000000000000000000
000000000000000000000000000000000010
000000000000000000000000000000000011
000000000000000000000000000001000011
000000000000000000000000010010000011
000000000000000000000000100011000010
000001000010000000000000110011000010
000011000100000100001000110010000010
000101001000001100100000110001000011
000110001100010000101000110000100010
000101001100001100100000110000000010
000010001000001000001000100000000001
000001000100000100000000100000000000
000000000000000000000000010000000000
000000000000000000000000000000000000
000000000000000000000000000000000000
000000000000000000000000000000000000
000000000000000000000000000000000000
000000000000000000000000000000000000
000000000000000000000000000000000000
000000000000000000000000000000000000
000000000000000000000000000000000000
000000000000000000000000000000000000
000000000000000000000000000000000000
000000000000000000000000000000000000
000000000000000000000000000000000000
000000000000000000000000000000000000
000000000000000000000000000000000000
000000000000000000000000000000000000
000000000000000000000000000000000001
000000000000000000000000000000100011
000000000000000000000000000001000011
000000000000000000000000000010000011
000000000000000000000000000011000011
000001000010000100000000010010100011
000011000100001000010000010001100011
000101001000001100100000010000100011
000110001100001100101000010000000010
000101001100001100011000010000000001
000010001000000100001000010000000000
000001000010000000000000000000000000
000000000000000000000000000000000000
000000000000000000000000000000000000
000000000000000000000000000000000000
000000000000000000000000000000000000
000000000000000000000000000000000000
000000000000000000000000000000000000
000000000000000000000000000000000000
000000000000000000000000000000000000
000000000000000000000000000000000000
000000000000000000000000000000000000
000000000000000000000000000000000000
000000000000000000000000000000000000
000000000000000000000000000000000000
000000000000000000000000000000000000
000000000000000000000000000000000000
000000000000000000000000000000000000
000000000000000000000000000000000001
000000000000000000000000000000100010
000000000000000000000000000001000011
000000000000000000000000000001100011
000000000000000100000000000010100011
000001000000001000001000000010000011
000010000010001000011000000001000010
000100000110001100100000000000100010
000101001010001100100000000000000001
000100001010001000010000000000000001
000010000110000100001000000000000000
000000000010000000000000000000000000
000000000000000000000000000000000000
000000000000000000000000000000000000
000000000000000000000000000000000000
000000000000000000000000000000000000
000000000000000000000000000000000000
000000000000000000000000000000000000
000000000000000000000000000000000000
000000000000000000000000000000000000
000000000000000000000000000000000000
000000000000000000000000000000000000
000000000000000000000000000000000000
000000000000000000000000000000000000
000000000000000000000000000000000000
000000000000000000000000000000000000
000000000000000000000000000000000000
000000000000000000000000000000000000
000000000000000000000000000000000000
000000000000000000000000000000000001
000000000000000000000000000000000001
000000000000000000000000000000100010
000000000000000100000000000000100010
000000000000001000001000000000100010
000000000000001100011000000000000001
000001000010001100100000000000000001
000001000010001000011000000000000000
000001000010000100010000000000000000
000000000000000100000000000000000000
000000000000000000000000000000000000
000000000000000000000000000000000000
000000000000000000000000000000000000
000000000000000000000000000000000000
000000000000000000000000000000000000
000000000000000000000000000000000000
000000000000000000000000000000000000
000000000000000000000000000000000000
000000000000000000000000000000000000
000000000000000000000000000000000000
000000000000000000000000000000000000
000000000000000000000000000000000000
000000000000000000000000000000000000
000000000000000000000000000000000000
000000000000000000000000000000000000
000000000000000000000000000000000000
000000000000000000000000000000000000
000000000000000000000000000000000000
000000000000000000000000000000000000
000000000000000000000000000000000000
000000000000000000000000000000000000
000000000000000100000000000000000000
000000000000001000001000000000000000
000000000000001000011000000000000000
000000000000001000100000000000000000
000000000000001000011000000000000000
000000000000000100001000000000000000
000000000000000000000000000000000000
000000000000000000000000000000000000
000000000000000000000000000000000000
000000000000000000000000000000000000
000000000000000000000000000000000000
000000000000000000000000000000000000
000000000000000000000000000000000000
000000000000000000000000000000000000
000000000000000000000000000000000000
000000000000000000000000000000000000
000000000000000000000000000000000000
000000000000000000000000000000000000
000000000000000000000000000000000000
000000000000000000000000000000000000
000000000000000000000000000000000000
000000000000000000000000000000000000
000000000000000000000000000000000000
000000000000000000000000000000000000
000000000000000000000000000000000000
000000000000000000000000000000000000
000000000000000000000000000000000000
000000000000000000000000000000000000
000000000000000100000000000000000000
000000000000000100000000000000000000
000000000000000100001000000000000000
000000000000000100010000000000000000
000000000000000100001000000000000000
000000000000000000000000000000000000
000000000000000000000000000000000000
000000000000000000000000000000000000
000000000000000000000000000000000000
000000000000000000000000000000000000
000000000000000000000000000000000000
000000000000000000000000000000000000
000000000000000000000000000000000000
000000000000000000000000000000000000
000000000000000000000000000000000000
000000000000000000000000000000000000
000000000000000000000000000000000000
000000000000000000000000000000000000
000000000000000000000000000000000000
000000000000000000000000000000000000
000000000000000000000000000000000000
000000000000000000000000000000000000
000000000000000000000000000000000000
000000000000000000000000000000000000
000000000000000000000000000000000000
000000000000000000000000000000000000
000000000000000000000000000000000000
000000000000000000000000000000000000
000000000000000000000000000000000000
000000000000000000000000000000000000
000000000000000000000000000000000000
000000000000000000000000000000000000
000000000000000000000000000000000000
000000000000000000000000000000000000
000000000000000000000000000000000000
000000000000000000000000000000000000
000000000000000000000000000000000000
000000000000000000000000000000000000
000000000000000000000000000000000000
000000000000000000000000000000000000
000000000000000000000000000000000000
000000000000000000000000000000000000
000000000000000000000000000000000000
000000000000000000000000000000000000
000000000000000000000000000000000000
000000000000000000000000000000000000
