000000000000000000000000000000000000
000000000000000000000000000000000000
000000000000000000000000000000000000
000000000000000000000000000000000000
000000000000000000000000000000000000
000000000000000000000000000000000000
000000000000000000000000000000000000
000000000000000000000000000000000000
000000000000000000000000000000000000
000000000000000000000000000000000000
000000000000000000000000000000000000
000000000000000000000000000000000000
000000000000000000000000000000000000
000000000000000000000000000000000000
000000000000000000000000000000000000
000000000000000000000000000000000000
000000000000000000000000000000000000
000000000000000000000000000000000000
000000000000000000000000000000000000
000000000000000000000000000000000000
000000000000000000000000000000000000
000000000000000000000000000000000000
000000000000000000000000000000000000
000000000000000000000000000000000000
000000000000000000000000000000000000
000000000000000000000000000000000000
000000000000000000000000000000000000
000000000000000000000000000000000000
000000000000000000000000000000000000
000000000000000000000000000000000000
000000000000000000000000000000000000
000000000000000000000000000000000000
000000000000000000000000000000000000
000000000000000000000000000000000000
000000000000000000000000000000000000
000000000000000000000000000000000000
000000000000000000000000000000000000
000000000000000000000000000000000000
000000000000000000000000000000000000
000000000000000000000000000000000000
000000000000000000000000000000000000
000000000000000000000000000000000000
000000000000000000000000000000000000
000000000000000000000000000000000000
000000000000000000000000000000000000
000000000000000000000000000000000000
000000000000000000000000000000000000
000000000000000000000000000000000000
000000000000000000000000000000000000
000000000000000000000000000000000000
000000000000000000000000000000000000
000000000000000000000000000000000000
000000000000000000000000000000000000
000000000000000000000000000000000000
000000000000000000000000000000000000
000000000000000000000000000000000000
000000000000000000000000000000000000
000000000000000000000000000000000000
000000000000000000000000000000000000
000000000000000000000000000000000000
000000000000000000000000000000000000
000000000000000000000000000000000000
000000000000000000000000000000000000
000000000000000000000000000000000000
000000000000000000000000000000000000
000000000000000000000000000000000000
000000000000000000000000000000000000
000000000000000000000000000000000000
000000000000000000000000000000000000
000000000000000000000000000000000000
000000000000000000000000000000000000
000000000000000000000000000000000000
000000000000000000000000000000000000
000000000000000000000000000000000000
000000000000000000000000000000000000
000000000000000000000000000000000000
000000000000000000000000000000000000
000000000000000000000000000000000000
000000000000000000000000000000000000
000000000000000000000000000000000000
000000000000000000000000000000000000
000000000000000000000000000000000000
000000000000000000000000000000000000
000000000000000000000000000000000000
000000000000000000000000000000000000
000000000000000000000000000000000000
000000000000000000000000000000000000
000000000000000000000000000000000000
000000000000000000000000000000000000
000000000000000000000000000000000000
000000000000000000000000000000000000
000000000000000000000000000000000000
000000000000000000000000000000000000
000000000000000000000000000000000000
000000000000000000000000000000000000
000000000000000000000000000000000000
000000000000000000000000000000000000
000000000000000000000000000000000000
000000000000000000000000000000000000
000000000000000000000000000000000000
000000000000000000000000000000000000
000000000000000000000000000000000000
000000000000000000000000000000000000
000000000000000000000000000000000000
000000000000000000000000000000000000
000000000000000000000000000000000000
000000000000000000000000000000000000
000000000000000000000000000000000000
000000000000000000000000000000000000
000000000000000000000000000000000000
000000000000000000000000000000000000
000000000000000000000000000000000000
000000000000000000000000000000000000
000000000000000000000000000000000000
000000000000000000000000000000000000
000000000000000000000000000000000000
000000000000000000000000000000000000
000000000000000000000000000000000000
000000000000000000000000000000000000
000000000000000000000000000000000000
000000000000000000000000000000000000
000000000000000000000000000000000000
000000000010000000000000010000000000
000000000010000000000000010000000000
000001000010000000000000010000000000
000011000010000000000000010000000000
000011000010000000000000010000000000
000010000010000100000000010000000000
000000000010001000000000000000000000
000000000000001000000000000000000000
000000000000000100000000000000000000
000000000000000000000000000000100000
000000000000000000000000000000100000
000000000000000000000000000000100000
000000000000000000000000000000000000
000000000000000000000000000000000000
000000000000000000000000000000000000
000000000000000000000000000000000000
000000000000000000000000000000000000
000000000000000000000000000000000000
000000000000000000000000000000000000
000000000000000000000000000000000000
000000000000000000000000000000000000
000000000000000000000000000000000000
000000000000000000000000000000000000
000000000000000000000000000000000000
000000000000000000000000000000000000
000000000000000000000000000000000000
000000000010000000000000010000000000
000000000100000000000000010000000000
000000000100000000000000010000000000
000001000110000000001000100000000000
000011000110000000001000100000000000
000101000110000000001000100000000000
000101000110000100010000100000000000
000011000110001100001000100000000000
000001000110010100010000010000000000
000000000100010100001000010000100000
000000000010001100001000000001000000
000000000010000100001000000001100000
000000000000000000000000000001100000
000000000000000000000000000001000000
000000000000000000000000000000100000
000000000000000000000000000000100000
000000000000000000000000000000000000
000000000000000000000000000000000000
000000000000000000000000000000000000
000000000000000000000000000000000000
000000000000000000000000000000000000
000000000000000000000000000000000000
000000000000000000000000000000000000
000000000000000000000000000000000000
000000000000000000000000000000000000
000000000000000000000000000000000000
000000000000000000000000000000000000
000000000010000000000000010000000000
000000000100000000000000010000000000
000000000100000000001000100000000000
000000000110000000010000100000000000
000001000110000000010000100000000001
000011000110000000010000110000000001
000101000110000000010000100000000001
000110000110001000010000110000000001
000100000110010000010000100000100001
000010000110011000010000100000100001
000000000110010100010000100001000001
000000000100001100010000010001100001
000000000010000100010000000010000001
000000000010000000001000000010000000
000000000000000000001000000001100000
000000000000000000000000000001000000
000000000000000000000000000000100000
000000000000000000000000000000000000
000000000000000000000000000000000000
000000000000000000000000000000000000
000000000000000000000000000000000000
000000000000000000000000000000000000
000000000000000000000000000000000000
000000000000000000000000000000000000
000000000000000000000000000000000000
000000000000000000000000000000000000
000000000000000000000000000000000000
000000000000000000000000010000000000
000000000010000000001000010000000000
000000000100000000001000100000000000
000000000100000000010000100000000001
000000000100000000010000100000000001
000001000100000000010000110000000010
000011000100000000010000100000000010
000110000100000000010000100000000010
000111000100001000010000100000100010
000100000100010100010000100000100010
000010000100011100010000100000100010
000000000110010100010000110001100010
000000000100001000010000100010000010
000000000100000100010000010010000001
000000000010000000010000000010000001
000000000000000000001000000001100000
000000000000000000001000000000100000
000000000000000000000000000000000000
000000000000000000000000000000000000
000000000000000000000000000000000000
000000000000000000000000000000000000
000000000000000000000000000000000000
000000000000000000000000000000000000
000000000000000000000000000000000000
000000000000000000000000000000000000
000000000000000000000000000000000000
000000000000000000000000000000000000
000000000000000000000000000000000000
000000000000000000000000010000000000
000000000010000000001000010000000000
000000000010000000010000100000000000
000000000010000000010000100000000010
000000000010000000010000100000000011
000001000010000000010000100000000011
000011000010000000001000100000000011
000110000010000000001000010000100010
000111000010001100001000100000100010
000101000010011000001000100000100001
000010000100011100001000100001000010
000000000100010100001000110001100010
000000000100001000001000100010000011
000000000100000000010000010010000010
000000000010000000010000000001100001
000000000000000000001000000001000000
000000000000000000001000000000100000
000000000000000000000000000000000000
000000000000000000000000000000000000
000000000000000000000000000000000000
000000000000000000000000000000000000
000000000000000000000000000000000000
000000000000000000000000000000000000
000000000000000000000000000000000000
000000000000000000000000000000000000
000000000000000000000000000000000000
000000000000000000000000000000000000
000000000000000000000000000000000000
000000000000000000001000010000000000
000000000000000000001000010000000000
000000000010000000010000010000000001
000000000010000000010000010000000011
000000000010000000010000010000000100
000001000000000000001000010000000011
000011000000000000001000010000100010
000110000000000100000000010000100001
000111000000010000000000010000100001
000101000010011100000000010000100001
000010000100011100000000100001000001
000000000100010000001000100010000010
000000000100000100001000100010000011
000000000100000000010000100010000010
000000000010000000010000010001000001
000000000000000000001000000000100001
000000000000000000001000000000000000
000000000000000000000000000000000000
000000000000000000000000000000000000
000000000000000000000000000000000000
000000000000000000000000000000000000
000000000000000000000000000000000000
000000000000000000000000000000000000
000000000000000000000000000000000000
000000000000000000000000000000000000
000000000000000000000000000000000000
000000000000000000000000000000000000
000000000000000000000000000000000000
000000000000000000001000000000000000
000000000000000000010000000000000001
000000000000000000010000000000000010
000000000000000000001000010000000011
000000000000000000001000010000000011
000000000000000000000000010000000010
000010000000000000000000010000100001
000110000010000100000000000000100000
000111000010010100000000000000100000
000110000100011100000000000001000000
000010000100011000000000010001100001
000000000100001100001000100010000010
000000000100000000001000110010000011
000000000010000000010000100001100011
000000000000000000010000010000100010
000000000000000000001000000000000001
000000000000000000000000000000000000
000000000000000000000000000000000000
000000000000000000000000000000000000
000000000000000000000000000000000000
000000000000000000000000000000000000
000000000000000000000000000000000000
000000000000000000000000000000000000
000000000000000000000000000000000000
000000000000000000000000000000000000
000000000000000000000000000000000000
000000000000000000000000000000000000
000000000000000000000000000000000000
000000000000000000001000000000000000
000000000000000000010000000000000001
000000000000000000010000000000000011
000000000000000000001000000000000100
000000000010000000001000010000000011
000000000010000000000000000000100010
000010000010000000000000000000100000
000110000100001000000000000000100000
000111000100011000000000000001000000
000110000110011100000000000001100001
000010000110011000000000010010000010
000000000100001000001000100010100011
000000000100000000001000110010000100
000000000010000000010000110001000011
000000000000000000010000010000100001
000000000000000000001000000000000000
000000000000000000000000000000000000
000000000000000000000000000000000000
000000000000000000000000000000000000
000000000000000000000000000000000000
000000000000000000000000000000000000
000000000000000000000000000000000000
000000000000000000000000000000000000
000000000000000000000000000000000000
000000000000000000000000000000000000
000000000000000000000000000000000000
000000000000000000000000000000000000
000000000000000000000000000000000000
000000000000000000001000000000000000
000000000000000000010000000000000010
000000000000000000010000000000000011
000000000010000000001000000000000011
000000000010000000001000000000000010
000000000100000000001000000000100001
000010000110000100001000000000100000
000110000110010000001000000001000000
000111000110011100001000000001100000
000110000110011100001000000010000001
000010000110010000001000000010100011
000000000110000100001000100010000100
000000000100000000010000110001000011
000000000010000000010000110000100010
000000000000000000010000010000000001
000000000000000000001000000000000000
000000000000000000000000000000000000
000000000000000000000000000000000000
000000000000000000000000000000000000
000000000000000000000000000000000000
000000000000000000000000000000000000
000000000000000000000000000000000000
000000000000000000000000000000000000
000000000000000000000000000000000000
000000000000000000000000000000000000
000000000000000000000000000000000000
000000000000000000000000000000000000
000000000000000000000000000000000000
000000000000000000001000000000000001
000000000000000000001000000000000010
000000000000000000001000000000000100
000000000010000000001000010000000011
000000000100000000001000000000000010
000000000100000000010000000000100001
000010000110000100001000000000100001
000110000110010100001000000001100001
001000000110011100010000000010000001
000110000110011100010000000010100010
000010000110001100010000010010000011
000000000110000000010000100001100100
000000000100000000010000110000100011
000000000010000000010000110000000010
000000000010000000001000100000000001
000000000000000000000000000000000000
000000000000000000000000000000000000
000000000000000000000000000000000000
000000000000000000000000000000000000
000000000000000000000000000000000000
000000000000000000000000000000000000
000000000000000000000000000000000000
000000000000000000000000000000000000
000000000000000000000000000000000000
000000000000000000000000000000000000
000000000000000000000000000000000000
000000000000000000000000000000000000
000000000000000000000000000000000000
000000000000000000001000000000000001
000000000000000000001000000000000010
000000000000000000001000000000000100
000000000010000000001000000000000100
000000000100000000010000010000100011
000000000100000000010000010000100010
000010000100001000010000000001100010
000110000100011100010000000010000011
000111000110011100010000000010100011
000110000110011000010000010010100011
000010000110001000010000010001100100
000000000110000000010000100000100100
000000000100000000010000110000000011
000000000100000000010000110000000010
000000000010000000001000010000000001
000000000000000000000000000000000000
000000000000000000000000000000000000
000000000000000000000000000000000000
000000000000000000000000000000000000
000000000000000000000000000000000000
000000000000000000000000000000000000
000000000000000000000000000000000000
000000000000000000000000000000000000
000000000000000000000000000000000000
000000000000000000000000000000000000
000000000000000000000000000000000000
000000000000000000000000000000000000
000000000000000000000000000000000000
000000000000000000001000000000000001
000000000000000000001000000000000010
000000000000000000001000010000000011
000000000010000000001000010000000100
000000000010000000010000010000100100
000000000010000100010000010001000100
000010000010010000010000010010000100
000110000010011100010000010010100011
000111000010011100010000010010100100
000110000010010100010000010010000011
000010000100000100010000010001000100
000000000100000000010000110000000100
000000000100000000010000110000000011
000000000100000000010000100000000001
000000000100000000001000010000000000
000000000010000000000000010000000000
000000000000000000000000000000000000
000000000000000000000000000000000000
000000000000000000000000000000000000
000000000000000000000000000000000000
000000000000000000000000000000000000
000000000000000000000000000000000000
000000000000000000000000000000000000
000000000000000000000000000000000000
000000000000000000000000000000000000
000000000000000000000000000000000000
000000000000000000000000000000000000
000000000000000000000000000000000000
000000000000000000000000000000000000
000000000000000000001000000000000001
000000000000000000001000010000000010
000000000000000000001000010000100011
000000000000000000001000100001000011
000000000000000100001000010010000011
000010000000010100001000010010100011
000110000000011100001000010010100011
000111000000011100001000100010000011
000110000000001100010000100001000011
000010000010000000001000100000100100
000000000010000000010000100000000100
000000000100000000010000110000000010
000000000100000000010000100000000001
000000000100000000001000010000000000
000000000010000000000000000000000000
000000000000000000000000000000000000
000000000000000000000000000000000000
000000000000000000000000000000000000
000000000000000000000000000000000000
000000000000000000000000000000000000
000000000000000000000000000000000000
000000000000000000000000000000000000
000000000000000000000000000000000000
000000000000000000000000000000000000
000000000000000000000000000000000000
000000000000000000000000000000000000
000000000000000000000000000000000000
000000000000000000000000000000000000
000000000000000000000000010000000000
000000000000000000001000010000100001
000000000000000000001000100000100001
000000000000000000001000100001100010
000000000000001000001000010010000010
000010000000011000001000010010100001
000101000000011100001000010010000001
000111000000011000001000010001100010
000110000000001000001000100000100011
000010000000000000001000100000000100
000000000010000000001000100000000100
000000000100000000010000110000000010
000000000110000000010000100000000000
000000000100000000001000010000000000
000000000010000000000000010000000000
000000000000000000000000000000000000
000000000000000000000000000000000000
000000000000000000000000000000000000
000000000000000000000000000000000000
000000000000000000000000000000000000
000000000000000000000000000000000000
000000000000000000000000000000000000
000000000000000000000000000000000000
000000000000000000000000000000000000
000000000000000000000000000000000000
000000000000000000000000000000000000
000000000000000000000000000000000000
000000000000000000000000000000000000
000000000000000000001000010000000000
000000000000000000001000100000100000
000000000000000000001000100001100000
000000000000000100001000100010000000
000000000000001100001000010010100000
000010000000011000000000010010000000
000101000000011100001000010001100000
000111000000010100001000100000100001
000110000000000100001000100000000011
000011000000000000001000100000000100
000000000010000000001000110000000011
000000000100000000010000110000000001
000000000110000000010000100000000000
000000000100000000001000010000000000
000000000010000000001000010000000000
000000000000000000000000000000000000
000000000000000000000000000000000000
000000000000000000000000000000000000
000000000000000000000000000000000000
000000000000000000000000000000000000
000000000000000000000000000000000000
000000000000000000000000000000000000
000000000000000000000000000000000000
000000000000000000000000000000000000
000000000000000000000000000000000000
000000000000000000000000000000000000
000000000000000000000000000000000000
000000000010000000000000000000000000
000000000010000000001000010000100000
000000000010000000001000100001000000
000000000010000000001000100010000000
000000000000000100001000100010000000
000000000000010000001000100010000000
000001000000011100000000010001100000
000101000000011100000000010001000000
000111000000001100000000100000100001
000110000000000100000000100000000011
000011000010000000001000100000000100
000001000100000000001000100000000011
000000000110000000010000100000000001
000000000110000000010000100000000000
000000000100000000001000010000000000
000000000010000000000000010000000000
000000000000000000000000000000000000
000000000000000000000000000000000000
000000000000000000000000000000000000
000000000000000000000000000000000000
000000000000000000000000000000000000
000000000000000000000000000000000000
000000000000000000000000000000000000
000000000000000000000000000000000000
000000000000000000000000000000000000
000000000000000000000000000000000000
000000000000000000000000000000000000
000000000000000000000000000000000000
000000000010000000000000000000100000
000000000010000000000000010000100000
000000000100000000001000100001100000
000000000100000000001000100010000000
000000000010001000001000100010100000
000000000010010100001000100010000000
000001000010011100000000100001000000
000101000010011000000000100000100000
000111000010001100000000100000000010
000110000100000100000000100000000100
000011000100000000001000100000000100
000001000110000000010000100000000010
000000000110000000010000100000000000
000000000110000000010000010000000000
000000000100000000001000010000000000
000000000010000000001000010000000000
000000000000000000000000000000000000
000000000000000000000000000000000000
000000000000000000000000000000000000
000000000000000000000000000000000000
000000000000000000000000000000000000
000000000000000000000000000000000000
000000000000000000000000000000000000
000000000000000000000000000000000000
000000000000000000000000000000000000
000000000000000000000000000000000000
000000000000000000000000000000000000
000000000010000000000000000000000000
000000000010000000000000000000100000
000000000100000000001000010001000000
000000000100000000001000010010000000
000000000110000100001000100010000000
000000000100001100001000100010000000
000000000100010100001000100001100000
000010000100011100001000110001000000
000100000100010100001000100000100001
000111000100001000001000100000000010
000110000110000000001000100000000100
000011000110000000001000100000000011
000001000110000000010000010000000010
000000000110000000010000010000000000
000000000100000000010000010000000000
000000000010000000001000010000000000
000000000000000000001000000000000000
000000000000000000000000000000000000
000000000000000000000000000000000000
000000000000000000000000000000000000
000000000000000000000000000000000000
000000000000000000000000000000000000
000000000000000000000000000000000000
000000000000000000000000000000000000
000000000000000000000000000000000000
000000000000000000000000000000000000
000000000000000000000000000000000000
000000000000000000000000000000000000
000000000000000000000000000000000000
000000000010000000000000000000100000
000000000100000000001000000001100000
000000000100000000001000010010000000
000000000110000100001000100010000000
000000000110001100010000100001100000
000000000110011000010000100001000000
000001000110011000010000100000100000
000100000110010000001000100000000001
000110000110000100010000100000000011
000110000110000000010000010000000100
000100000110000000010000010000000011
000001000100000000010000010000000001
000000000100000000010000000000000000
000000000010000000001000000000000000
000000000000000000001000000000000000
000000000000000000000000000000000000
000000000000000000000000000000000000
000000000000000000000000000000000000
000000000000000000000000000000000000
000000000000000000000000000000000000
000000000000000000000000000000000000
000000000000000000000000000000000000
000000000000000000000000000000000000
000000000000000000000000000000000000
000000000000000000000000000000000000
000000000000000000000000000000000000
000000000000000000000000000000000000
000000000000000000000000000000000000
000000000000000000000000000000100000
000000000010000000000000000001000000
000000000010000000001000000001100000
000000000100000100001000010001100000
000000000100001100001000010001000000
000000000110010100010000010000100000
000001000110010100010000010000000000
000011000110001100010000010000000001
000110000100000100010000010000000011
000101000100000000010000010000000011
000011000010000000001000000000000010
000001000010000000001000000000000001
000000000000000000001000000000000000
000000000000000000001000000000000000
000000000000000000000000000000000000
000000000000000000000000000000000000
000000000000000000000000000000000000
000000000000000000000000000000000000
000000000000000000000000000000000000
000000000000000000000000000000000000
000000000000000000000000000000000000
000000000000000000000000000000000000
000000000000000000000000000000000000
000000000000000000000000000000000000
000000000000000000000000000000000000
000000000000000000000000000000000000
000000000000000000000000000000000000
000000000000000000000000000000000000
000000000000000000000000000000000000
000000000000000000000000000000100000
000000000000000000000000000000100000
000000000000000000000000000000100000
000000000000000100000000000000100000
000000000010000100001000000000000000
000000000010000100001000000000000000
000001000000000100001000000000000001
000010000000000000001000000000000010
000001000000000000001000000000000011
000001000000000000000000000000000010
000000000000000000001000000000000001
000000000000000000000000000000000000
000000000000000000000000000000000000
000000000000000000000000000000000000
000000000000000000000000000000000000
000000000000000000000000000000000000
000000000000000000000000000000000000
000000000000000000000000000000000000
000000000000000000000000000000000000
000000000000000000000000000000000000
000000000000000000000000000000000000
000000000000000000000000000000000000
000000000000000000000000000000000000
000000000000000000000000000000000000
000000000000000000000000000000000000
000000000000000000000000000000000000
000000000000000000000000000000000000
000000000000000000000000000000000000
000000000000000000000000000000000000
000000000000000000000000000000000000
000000000000000000000000000000000000
000000000000000000000000000000000000
000000000000000000000000000000000000
000000000000000000000000000000000000
000000000000000000000000000000000001
000000000000000000000000000000000001
000000000000000000000000000000000001
000000000000000000000000000000000001
000000000000000000000000000000000000
000000000000000000000000000000000000
000000000000000000000000000000000000
000000000000000000000000000000000000
000000000000000000000000000000000000
000000000000000000000000000000000000
000000000000000000000000000000000000
000000000000000000000000000000000000
000000000000000000000000000000000000
000000000000000000000000000000000000
000000000000000000000000000000000000
000000000000000000000000000000000000
000000000000000000000000000000000000
000000000000000000000000000000000000
000000000000000000000000000000000000
000000000000000000000000000000000000
000000000000000000000000000000000000
000000000000000000000000000000000000
000000000000000000000000000000000000
000000000000000000000000000000000000
000000000000000000000000000000000000
000000000000000000000000000000000000
000000000000000000000000000000000000
000000000000000000000000000000000000
000000000000000000000000000000000000
000000000000000000000000000000000000
000000000000000000000000000000000000
000000000000000000000000000000000000
000000000000000000000000000000000000
000000000000000000000000000000000000
000000000000000000000000000000000000
000000000000000000000000000000000000
000000000000000000000000000000000000
000000000000000000000000000000000000
000000000000000000000000000000000000
000000000000000000000000000000000000
000000000000000000000000000000000000
000000000000000000000000000000000000
000000000000000000000000000000000000
000000000000000000000000000000000000
000000000000000000000000000000000000
000000000000000000000000000000000000
000000000000000000000000000000000000
000000000000000000000000000000000000
000000000000000000000000000000000000
000000000000000000000000000000000000
000000000000000000000000000000000000
000000000000000000000000000000000000
000000000000000000000000000000000000
000000000000000000000000000000000000
000000000000000000000000000000000000
000000000000000000000000000000000000
000000000000000000000000000000000000
000000000000000000000000000000000000
000000000000000000000000000000000000
000000000000000000000000000000000000
000000000000000000000000000000000000
000000000000000000000000000000000000
000000000000000000000000000000000000
000000000000000000000000000000000000
000000000000000000000000000000000000
000000000000000000000000000000000000
000000000000000000000000000000000000
000000000000000000000000000000000000
000000000000000000000000000000000000
000000000000000000000000000000000000
000000000000000000000000000000000000
