000000000000000000000000000000000000
000000000000000000000000000000000000
000000000000000000000000000000000000
000000000000000000000000000000000000
000000000000000000000000000000000000
000000000000000000000000000000000000
000000000000000000000000000000000000
000000000000000000000000000000000000
000000000000000000000000000000000000
000000000000000000000000000000000000
000000000000000000000000000000000000
000000000000000000000000000000000000
000000000000000000000000000000000000
000000000000000000000000000000000000
000000000000000000000000000000000000
000000000000000000000000000000000000
000000000000000000000000000000000000
000000000000000000000000000000000000
000000000000000000000000000000000000
000000000000000000000000000000000000
000000000000000000000000000000000000
000000000000000000000000000000000000
000000000000000000000000000000000000
000000000000000000000000000000000000
000000000000000000000000000000000000
000000000000000000000000000000000000
000000000000000000000000000000000000
000000000000000000000000000000000000
000000000000000000000000000000000000
000000000000000000000000000000000000
000000000000000000000000000000000000
000000000000000000000000000000000000
000000000000000000000000000000000000
000000000000000000000000000000000000
000000000000000000000000000000000000
000000000000000000000000000000000000
000000000000000000000000000000000000
000000000000000000000000000000000000
000000000000000000000000000000000000
000000000000000000000000000000000000
000000000000000000000000000000000000
000000000000000000000000000000000000
000000000000000000000000000000000000
000000000000000000000000000000000000
000000000000000000000000000000000000
000000000000000000000000000000000000
000000000000000000000000000000000000
000000000000000000000000000000000000
000000000000000000000000000000000000
000000000000000000000000000000000000
000000000000000000000000000000000000
000000000000000000000000000000000000
000000000000000000000000000000000000
000000000000000000000000000000000000
000000000000000000000000000000000000
000000000000000000000000000000000000
000000000000000000000000000000000000
000000000000000000000000000000000000
000000000000000000000000000000000000
000000000000000000000000000000000000
000000000000000000000000000000000000
000000000000000000000000000000000000
000000000000000000000000000000000000
000000000000000000000000000000000000
000000000000000000000000000000000000
000000000000000000000000000000000000
000000000000000000000000000000000000
000000000000000000000000000000000000
000000000000000000000000000000000000
000000000000000000000000000000000000
000000000000000000000000000000000000
000000000000000000000000000000000000
000000000000000000000000000000000000
000000000000000000000000000000000000
000000000000000000000000000000000000
000000000000000000000000000000000000
000000000000000000000000000000000000
000000000000000000000000000000000000
000000000000000000000000000000000000
000000000000000000000000000000000000
000000000000000000000000000000000000
000000000000000000000000000000000000
000000000000000000000000000000000000
000000000000000000000000000000000000
000000000000000000000000000000000000
000000000000000000000000000000000000
000000000000000000000000000000000000
000000000000000000000000000000000000
000000000000000000000000000000000000
000000000000000000000000000000000000
000000000000000000000000000000000000
000000000000000000000000000000000000
000000000000000000000000000000000000
000000000000000000000000000000000000
000000000000000000000000000000000000
000000000000000000000000000000000000
000000000000000000000000000000000000
000000000000000000000000000000000000
000000000000000000000000000000000000
000000000000000000000000000000000000
000000000000000000000000000000000000
000000000000000000000000000000000000
000000000000000000000000000000000000
000000000000000000000000000000000000
000000000000000000000000000000000000
000000000000000000000000000000000000
000000000000000000000000000000000000
000000000000000000000000000000000000
000000000000000000000000000000000000
000000000000000000000000000000000000
000000000000000000000000000000000000
000000000000000000000000000000000000
000000000000000000000000000000000000
000000000000000000000000000000000000
000000000000000000000000000000000000
000000000000000000000000000000000000
000000000000000000000000000000000000
000000000000000000000000000000000000
000000000000000000000000000000000000
000000000000000000000000000000000000
000000000000000000000000000000000000
000000000000000000000000000000100000
000000000000000000000000000000100000
000000000000000000001000000000100000
000000000000000000001000000000100000
000000000000000000001000000000100000
000000000000000000001000010000100000
000000000000000000010000010000100000
000000000000000100010000010000000000
000001000000000100001000000000000000
000001000000000000001000000000000000
000001000000000000001000000000000000
000000000000000000000000000000000000
000000000000000000000000000000000000
000000000000000000000000000000000000
000000000000000000000000000000000000
000000000000000000000000000000000000
000000000000000000000000000000000000
000000000000000000000000000000000000
000000000000000000000000000000000000
000000000000000000000000000000000000
000000000000000000000000000000000000
000000000000000000000000000000000000
000000000000000000000000000000000000
000000000000000000000000000000000000
000000000000000000000000000000000000
000000000000000000000000000000000000
000000000000000000000000000000100000
000000000000000000000000000001000000
000000000000000000000000000001000000
000000000000000000001000000001100000
000000000000000000001000010001100000
000000000000000100010000010001100001
000000000000000100010000010001100001
000001000000001000011000010001100001
000001000000001000011000010001000001
000010000000001000011000010001000010
000011000000001000011000010000100001
000011000000001000010000010000000001
000010000000000100010000000000000001
000001000000000100001000000000000001
000000000000000000000000000000000000
000000000000000000000000000000000000
000000000000000000000000000000000000
000000000000000000000000000000000000
000000000000000000000000000000000000
000000000000000000000000000000000000
000000000000000000000000000000000000
000000000000000000000000000000000000
000000000000000000000000000000000000
000000000000000000000000000000000000
000000000000000000000000000000000000
000000000000000000000000000000000000
000000000000000000000000000000000000
000000000000000000000000000000100000
000000000000000000000000000001000000
000000000000000000000000000001000000
000000000000000000000000010001100000
000000000000000100001000010001100001
000000000000000100010000100001100010
000001000000001000010000100001100010
000001000010001100011000100001100011
000010000010001100011000100001100011
000010000010001100011000100001100011
000011000010001100011000100001100011
000100000010001100011000100001000011
000100000010001100011000100000100011
000011000010001000010000010000000011
000010000010001000001000010000000010
000001000010000100001000000000000010
000000000010000000000000000000000001
000000000000000000000000000000000000
000000000000000000000000000000000000
000000000000000000000000000000000000
000000000000000000000000000000000000
000000000000000000000000000000000000
000000000000000000000000000000000000
000000000000000000000000000000000000
000000000000000000000000000000000000
000000000000000000000000000000000000
000000000000000000000000000000000000
000000000000000000000000000000000000
000000000000000000000000000000100000
000000000000000000000000000001000000
000000000000000000000000010001000001
000000000000000100000000010001100001
000000000000000100001000010001000010
000001000000001000010000100001000011
000001000010001100010000100001000011
000001000100001100010000100001000011
000010000100001100010000100001000011
000011000100001100010000100001100011
000100000100001100010000100001100011
000100000100001100011000100001000011
000100000100001100010000100001000011
000011000100001000010000100000100011
000010000100001000010000010000000010
000001000100000100001000010000000010
000000000010000000000000000000000001
000000000000000000000000000000000001
000000000000000000000000000000000000
000000000000000000000000000000000000
000000000000000000000000000000000000
000000000000000000000000000000000000
000000000000000000000000000000000000
000000000000000000000000000000000000
000000000000000000000000000000000000
000000000000000000000000000000000000
000000000000000000000000000000000000
000000000000000000000000000000000000
000000000000000000000000000000100000
000000000000000000000000010000100000
000000000000000000000000010001000001
000000000000000100000000010001000010
000001000010001000001000100000100011
000001000100001100001000100000100011
000001000110001100010000100000100011
000010000110001000010000100000100010
000010000110001000001000010000100010
000011000100001000010000010001000010
000100000100001000010000010001000010
000100000100001000010000100001000010
000100000100001000010000100001000010
000011000100001000010000100000100010
000010000110001000001000010000000010
000001000100000100001000010000000001
000000000010000000000000000000000001
000000000000000000000000000000000000
000000000000000000000000000000000000
000000000000000000000000000000000000
000000000000000000000000000000000000
000000000000000000000000000000000000
000000000000000000000000000000000000
000000000000000000000000000000000000
000000000000000000000000000000000000
000000000000000000000000000000000000
000000000000000000000000000000000000
000000000000000000000000000000000000
000000000000000000000000000000000000
000000000000000000000000010000100000
000000000000000100000000010000100001
000000000010000100000000010000100010
000000000100001000001000010000100011
000001000110001000001000010000000011
000001001000001000001000010000000010
000010000110001000001000010000000001
000010000100000100001000000000100001
000011000010000100001000000001000001
000011000010000100010000010001000001
000100000010000100010000010001000001
000011000100001000010000100001000010
000010000110001000001000100000100010
000001000110001000001000100000000001
000000000100000100000000010000000001
000000000010000000000000000000000000
000000000000000000000000000000000000
000000000000000000000000000000000000
000000000000000000000000000000000000
000000000000000000000000000000000000
000000000000000000000000000000000000
000000000000000000000000000000000000
000000000000000000000000000000000000
000000000000000000000000000000000000
000000000000000000000000000000000000
000000000000000000000000000000000000
000000000000000000000000000000000000
000000000000000000000000010000000000
000000000000000000000000010000000001
000000000000000100000000010000000001
000000000100001000000000010000000010
000000000110001000001000010000000010
000001001000001000001000000000000010
000001000110001000010000000000000001
000010000100000100010000000000100001
000010000010000100010000000000100000
000011000000000100010000000001000000
000011000010000100010000000001100001
000100000010000100010000010001000001
000011000100000100010000100001000001
000010000110001000001000100000100001
000001000110001000001000100000000001
000000000100000100000000010000000000
000000000010000000000000000000000000
000000000000000000000000000000000000
000000000000000000000000000000000000
000000000000000000000000000000000000
000000000000000000000000000000000000
000000000000000000000000000000000000
000000000000000000000000000000000000
000000000000000000000000000000000000
000000000000000000000000000000000000
000000000000000000000000000000000000
000000000000000000000000000000000000
000000000000000000000000000000000000
000000000000000000000000000000000000
000000000000000000000000010000000001
000000000010000100000000010000000001
000000000110001000000000010000000010
000000001000001000001000000000100010
000001000110001000010000000000100010
000001000100001000011000000000100001
000010000010000100011000000001000001
000011000000000100011000000001000001
000011000000000100011000000001100001
000100000010000100011000000001100001
000100000100000100010000010001000001
000011000110000100010000100000100001
000001000110000100001000110000000001
000000000110000100000000100000000001
000000000010000100000000010000000000
000000000000000000000000000000000000
000000000000000000000000000000000000
000000000000000000000000000000000000
000000000000000000000000000000000000
000000000000000000000000000000000000
000000000000000000000000000000000000
000000000000000000000000000000000000
000000000000000000000000000000000000
000000000000000000000000000000000000
000000000000000000000000000000000000
000000000000000000000000000000000000
000000000000000000000000000000000000
000000000000000000000000000000000000
000000000010000000000000010000000001
000000000100000100000000010000000001
000000000110001000001000000000100010
000000001000001000010000000000100010
000001000100001000010000000001000010
000010000010001000011000000001000010
000011000000000100011000000001100001
000100000000000100011000000001100001
000100000010000100011000000001100001
000100000100000100011000000001100001
000011000110000100011000010001000001
000010001000000100010000100000100001
000001000110000100001000100000000001
000000000100000100001000100000000000
000000000010000100000000010000000000
000000000000000000000000000000000000
000000000000000000000000000000000000
000000000000000000000000000000000000
000000000000000000000000000000000000
000000000000000000000000000000000000
000000000000000000000000000000000000
000000000000000000000000000000000000
000000000000000000000000000000000000
000000000000000000000000000000000000
000000000000000000000000000000000000
000000000000000000000000000000000000
000000000000000000000000000000000000
000000000000000000000000010000000000
000000000010000100000000010000000000
000000000110001000000000010000000001
000000000110001000001000000000100010
000000000110001100010000000001000010
000001000100001000010000000001000010
000010000010001000010000000001100010
000100000010001000011000000001100010
000100000010000100011000000001100010
000100000100000100011000000001100010
000100000110000100011000010001100010
000010001000000100011000010001000001
000001001000000100011000100000100001
000000000110001000010000100000100000
000000000010000100001000010000000000
000000000010000100000000010000000000
000000000000000000000000000000000000
000000000000000000000000000000000000
000000000000000000000000000000000000
000000000000000000000000000000000000
000000000000000000000000000000000000
000000000000000000000000000000000000
000000000000000000000000000000000000
000000000000000000000000000000000000
000000000000000000000000000000000000
000000000000000000000000000000000000
000000000000000000000000000000000000
000000000000000000000000000000000000
000000000010000000000000010000000000
000000000100000100000000010000000000
000000000110001000000000010000000001
000000000110001000001000010000100010
000000000110001000001000010001000010
000001000110001000001000010001000011
000011000100000100001000010001100011
000100000100000100001000010001100011
000100000110000100010000010001100011
000100000110000100001000010001100010
000011001000000100010000010001100010
000001001000000100011000100001000010
000000001000001000011000100001000001
000000000100001000010000100000100000
000000000010001000001000010000100000
000000000000000100000000010000000000
000000000000000000000000000000000000
000000000000000000000000000000000000
000000000000000000000000000000000000
000000000000000000000000000000000000
000000000000000000000000000000000000
000000000000000000000000000000000000
000000000000000000000000000000000000
000000000000000000000000000000000000
000000000000000000000000000000000000
000000000000000000000000000000000000
000000000000000000000000000000000000
000000000000000000000000010000000000
000000000010000000000000010000000000
000000000100000100000000100000000000
000000000100000100000000100000000001
000000000110001000001000010000100001
000001000110001000000000010000100010
000010000110000100001000010000100010
000100000110000100000000010001000011
000100000110000100000000010001000011
000100000110000100000000100001000010
000100001000000100001000100001000010
000010001000000100001000100001000010
000001001000000100010000110001000010
000000000110001000011000110001000001
000000000010001000011000100001000001
000000000000001000001000010000100000
000000000000000100000000000000100000
000000000000000000000000000000000000
000000000000000000000000000000000000
000000000000000000000000000000000000
000000000000000000000000000000000000
000000000000000000000000000000000000
000000000000000000000000000000000000
000000000000000000000000000000000000
000000000000000000000000000000000000
000000000000000000000000000000000000
000000000000000000000000000000000000
000000000000000000000000000000000000
000000000000000000000000010000000000
000000000010000000000000100000000000
000000000010000100000000100000000000
000000000100000100000000100000000000
000000000100000100000000100000000001
000001000100000100000000100000000001
000011000100000100000000100000100001
000100000100000000000000100000100010
000100000110000000000000100000100001
000100000110000000000000100000100010
000011001000000000000000110000100010
000001001000000100001000110000100010
000000000110000100010000110000100010
000000000100001000011000100001000010
000000000000001000010000100001000001
000000000000001000001000010001000000
000000000000000100000000010000100000
000000000000000000000000000000000000
000000000000000000000000000000000000
000000000000000000000000000000000000
000000000000000000000000000000000000
000000000000000000000000000000000000
000000000000000000000000000000000000
000000000000000000000000000000000000
000000000000000000000000000000000000
000000000000000000000000000000000000
000000000000000000000000000000000000
000000000000000000000000000000000000
000000000000000000000000010000000000
000000000000000000000000100000000000
000000000000000100000000110000000000
000000000010000100000000100000000000
000001000010000100000000100000000000
000010000010000100000000100000000001
000011000010000000000000100000000001
000100000010000000000000110000000001
000100000100000000000000100000000001
000100000110000000000000110000000001
000010001000000000000000110000000001
000001000110000100001000110000000010
000000000100000100010000110000100010
000000000000001000011000110001000010
000000000000001000011000100001000001
000000000000001000001000100001000000
000000000000000100000000010000100000
000000000000000000000000010000000000
000000000000000000000000000000000000
000000000000000000000000000000000000
000000000000000000000000000000000000
000000000000000000000000000000000000
000000000000000000000000000000000000
000000000000000000000000000000000000
000000000000000000000000000000000000
000000000000000000000000000000000000
000000000000000000000000000000000000
000000000000000000000000000000000000
000000000000000000000000010000000000
000000000000000100001000100000000000
000000000000000100001000100000000000
000000000000001000001000100000000000
000010000000000100000000100000000000
000011000000000100000000100000100001
000100000000000000000000100000000001
000100000010000000000000110000000000
000100000110000000000000110000000000
000011001000000000000000100000000000
000010000110000000001000100000000001
000001000100000100010000100000000010
000000000010001000011000100000100011
000000000000001100011000100001000011
000000000000001000010000100001000001
000000000000001000001000100001000000
000000000000000100000000010001000000
000000000000000000000000010000100000
000000000000000000000000010000000000
000000000000000000000000000000000000
000000000000000000000000000000000000
000000000000000000000000000000000000
000000000000000000000000000000000000
000000000000000000000000000000000000
000000000000000000000000000000000000
000000000000000000000000000000000000
000000000000000000000000000000000000
000000000000000000000000000000000000
000000000000000000001000010000000000
000000000000000100001000010000000000
000000000000000100010000100000000000
000001000000001000001000100000100000
000010000000000100001000100000100000
000011000000000100001000100000100000
000100000010000000000000100000100000
000100000100000000000000100000100000
000011000110000000001000100000000000
000010001000000000001000100000000000
000010000110000100010000010000000000
000001000010001000011000010000100010
000000000000001100011000010000100011
000000000000001100011000100001000011
000000000000001000010000100001100001
000000000000000100001000100001100000
000000000000000000000000010001000000
000000000000000000000000010000100000
000000000000000000000000010000000000
000000000000000000000000000000000000
000000000000000000000000000000000000
000000000000000000000000000000000000
000000000000000000000000000000000000
000000000000000000000000000000000000
000000000000000000000000000000000000
000000000000000000000000000000000000
000000000000000000000000000000000000
000000000000000000001000000000000000
000000000000000000001000010000000000
000000000000000100010000010000000000
000001000000001000010000100000100000
000010000000001000010000100000100001
000011000000001000010000100001000001
000011000000000100010000100001000001
000100000010000100010000010001000000
000100000110000100010000100000100000
000011001000000100010000010000100000
000010000110000100011000010000100000
000001000100001000011000010000100001
000001000000001000100000010001000010
000000000000001100011000010001000011
000000000000001100010000010001100011
000000000000001000001000010001100001
000000000000000100000000010001000000
000000000000000000000000010000100000
000000000000000000000000010000000000
000000000000000000000000000000000000
000000000000000000000000000000000000
000000000000000000000000000000000000
000000000000000000000000000000000000
000000000000000000000000000000000000
000000000000000000000000000000000000
000000000000000000000000000000000000
000000000000000000000000000000000000
000000000000000000000000000000000000
000000000000000000000000000000000000
000000000000000000001000000000000000
000000000000000100010000000000000000
000001000000001000011000010000100001
000010000000001000011000010000100001
000011000000001000011000010001000001
000100000010001000011000010001100001
000100000100001000011000010001100001
000011001000001000011000000001100000
000011000110001000100000000001000001
000010000100001100100000000001100001
000001000010001100011000000001100010
000001000000001100011000000001100011
000000000000001100010000010001100011
000000000000001000001000010001100010
000000000000000100000000010001100001
000000000000000000000000010001000000
000000000000000000000000010000100000
000000000000000000000000000000000000
000000000000000000000000000000000000
000000000000000000000000000000000000
000000000000000000000000000000000000
000000000000000000000000000000000000
000000000000000000000000000000000000
000000000000000000000000000000000000
000000000000000000000000000000000000
000000000000000000000000000000000000
000000000000000000000000000000000000
000000000000000000000000000000000000
000000000000000000001000000000000000
000000000000000000001000000000000000
000001000000000100010000000000100001
000010000000001000011000000000100001
000011000000001100011000000001000010
000100000100001100011000000001000010
000100000110001100100000000001100010
000011001000001100011000000001100010
000010000110001100011000000001100010
000001000010001100011000000001100011
000001000000001100010000000001100011
000000000000001000001000000001100011
000000000000000100000000000001100011
000000000000000100000000010001000001
000000000000000000000000010001000000
000000000000000000000000000000100000
000000000000000000000000000000000000
000000000000000000000000000000000000
000000000000000000000000000000000000
000000000000000000000000000000000000
000000000000000000000000000000000000
000000000000000000000000000000000000
000000000000000000000000000000000000
000000000000000000000000000000000000
000000000000000000000000000000000000
000000000000000000000000000000000000
000000000000000000000000000000000000
000000000000000000000000000000000000
000000000000000000000000000000000000
000000000000000000000000000000000000
000001000000000100001000000000000001
000010000000000100010000000000000010
000011000010001000010000000000100010
000100000100001000010000000000100011
000011000110001100010000000001000011
000011000110001100010000000001000011
000001000100001100010000000001100011
000001000010001000001000000001100011
000000000000001000000000000001000011
000000000000000100000000000001000010
000000000000000000000000000001000010
000000000000000000000000000000100001
000000000000000000000000010000000000
000000000000000000000000000000000000
000000000000000000000000000000000000
000000000000000000000000000000000000
000000000000000000000000000000000000
000000000000000000000000000000000000
000000000000000000000000000000000000
000000000000000000000000000000000000
000000000000000000000000000000000000
000000000000000000000000000000000000
000000000000000000000000000000000000
000000000000000000000000000000000000
000000000000000000000000000000000000
000000000000000000000000000000000000
000000000000000000000000000000000000
000000000000000000000000000000000000
000000000000000000000000000000000000
000000000000000000000000000000000001
000001000010000000000000000000000010
000001000100000100000000000000000010
000001000110000100000000000000000011
000001000100000100000000000000100011
000000000010000100000000000000100011
000000000000000100000000000000100011
000000000000000000000000000000000010
000000000000000000000000000000000001
000000000000000000000000000000000000
000000000000000000000000000000000000
000000000000000000000000000000000000
000000000000000000000000000000000000
000000000000000000000000000000000000
000000000000000000000000000000000000
000000000000000000000000000000000000
000000000000000000000000000000000000
000000000000000000000000000000000000
000000000000000000000000000000000000
000000000000000000000000000000000000
000000000000000000000000000000000000
000000000000000000000000000000000000
000000000000000000000000000000000000
000000000000000000000000000000000000
000000000000000000000000000000000000
000000000000000000000000000000000000
000000000000000000000000000000000000
000000000000000000000000000000000000
000000000000000000000000000000000000
000000000010000000000000000000000000
000000000010000000000000000000000000
000000000010000000000000000000000000
000000000010000000000000000000000000
000000000000000000000000000000000000
000000000000000000000000000000000000
000000000000000000000000000000000000
000000000000000000000000000000000000
000000000000000000000000000000000000
000000000000000000000000000000000000
000000000000000000000000000000000000
000000000000000000000000000000000000
000000000000000000000000000000000000
000000000000000000000000000000000000
000000000000000000000000000000000000
000000000000000000000000000000000000
000000000000000000000000000000000000
000000000000000000000000000000000000
000000000000000000000000000000000000
000000000000000000000000000000000000
000000000000000000000000000000000000
000000000000000000000000000000000000
000000000000000000000000000000000000
000000000000000000000000000000000000
000000000000000000000000000000000000
000000000000000000000000000000000000
000000000000000000000000000000000000
000000000000000000000000000000000000
000000000000000000000000000000000000
000000000000000000000000000000000000
000000000000000000000000000000000000
000000000000000000000000000000000000
000000000000000000000000000000000000
000000000000000000000000000000000000
000000000000000000000000000000000000
000000000000000000000000000000000000
000000000000000000000000000000000000
000000000000000000000000000000000000
000000000000000000000000000000000000
000000000000000000000000000000000000
000000000000000000000000000000000000
000000000000000000000000000000000000
000000000000000000000000000000000000
000000000000000000000000000000000000
000000000000000000000000000000000000
000000000000000000000000000000000000
000000000000000000000000000000000000
000000000000000000000000000000000000
000000000000000000000000000000000000
000000000000000000000000000000000000
000000000000000000000000000000000000
000000000000000000000000000000000000
000000000000000000000000000000000000
000000000000000000000000000000000000
000000000000000000000000000000000000
000000000000000000000000000000000000
000000000000000000000000000000000000
000000000000000000000000000000000000
000000000000000000000000000000000000
000000000000000000000000000000000000
000000000000000000000000000000000000
000000000000000000000000000000000000
000000000000000000000000000000000000
000000000000000000000000000000000000
000000000000000000000000000000000000
000000000000000000000000000000000000
000000000000000000000000000000000000
000000000000000000000000000000000000
000000000000000000000000000000000000
000000000000000000000000000000000000
000000000000000000000000000000000000
000000000000000000000000000000000000
000000000000000000000000000000000000
000000000000000000000000000000000000
000000000000000000000000000000000000
000000000000000000000000000000000000
000000000000000000000000000000000000
000000000000000000000000000000000000
000000000000000000000000000000000000
000000000000000000000000000000000000
000000000000000000000000000000000000
000000000000000000000000000000000000
000000000000000000000000000000000000
000000000000000000000000000000000000
000000000000000000000000000000000000
000000000000000000000000000000000000
000000000000000000000000000000000000
000000000000000000000000000000000000
000000000000000000000000000000000000
000000000000000000000000000000000000
000000000000000000000000000000000000
000000000000000000000000000000000000
000000000000000000000000000000000000
000000000000000000000000000000000000
000000000000000000000000000000000000
000000000000000000000000000000000000
000000000000000000000000000000000000
000000000000000000000000000000000000
000000000000000000000000000000000000
000000000000000000000000000000000000
000000000000000000000000000000000000
000000000000000000000000000000000000
000000000000000000000000000000000000
000000000000000000000000000000000000
000000000000000000000000000000000000
000000000000000000000000000000000000
000000000000000000000000000000000000
000000000000000000000000000000000000
000000000000000000000000000000000000
000000000000000000000000000000000000
000000000000000000000000000000000000
000000000000000000000000000000000000
000000000000000000000000000000000000
000000000000000000000000000000000000
000000000000000000000000000000000000
000000000000000000000000000000000000
000000000000000000000000000000000000
000000000000000000000000000000000000
000000000000000000000000000000000000
000000000000000000000000000000000000
000000000000000000000000000000000000
000000000000000000000000000000000000
000000000000000000000000000000000000
000000000000000000000000000000000000
000000000000000000000000000000000000
000000000000000000000000000000000000
000000000000000000000000000000000000
000000000000000000000000000000000000
000000000000000000000000000000000000
000000000000000000000000000000000000
000000000000000000000000000000000000
000000000000000000000000000000000000
000000000000000000000000000000000000
000000000000000000000000000000000000
000000000000000000000000000000000000
000000000000000000000000000000000000
000000000000000000000000000000000000
000000000000000000000000000000000000
000000000000000000000000000000000000
000000000000000000000000000000000000
000000000000000000000000000000000000
000000000000000000000000000000000000
000000000000000000000000000000000000
000000000000000000000000000000000000
000000000000000000000000000000000000
000000000000000000000000000000000000
000000000000000000000000000000000000
000000000000000000000000000000000000
000000000000000000000000000000000000
000000000000000000000000000000000000
000000000000000000000000000000000000
000000000000000000000000000000000000
000000000000000000000000000000000000
000000000000000000000000000000000000
000000000000000000000000000000000000
000000000000000000000000000000000000
000000000000000000000000000000000000
000000000000000000000000000000000000
000000000000000000000000000000000000
000000000000000000000000000000000000
000000000000000000000000000000000000
000000000000000000000000000000000000
000000000000000000000000000000000000
000000000000000000000000000000000000
000000000000000000000000000000000000
000000000000000000000000000000000000
000000000000000000000000000000000000
000000000000000000000000000000000000
000000000000000000000000000000000000
000000000000000000000000000000000000
000000000000000000000000000000000000
000000000000000000000000000000000000
000000000000000000000000000000000000
000000000000000000000000000000000000
000000000000000000000000000000000000
000000000000000000000000000000000000
000000000000000000000000000000000000
000000000000000000000000000000000000
000000000000000000000000000000000000
000000000000000000000000000000000000
000000000000000000000000000000000000
000000000000000000000000000000000000
000000000000000000000000000000000000
000000000000000000000000000000000000
000000000000000000000000000000000000
000000000000000000000000000000000000
000000000000000000000000000000000000
000000000000000000000000000000000000
000000000000000000000000000000000000
000000000000000000000000000000000000
000000000000000000000000000000000000
000000000000000000000000000000000000
000000000000000000000000000000000000
000000000000000000000000000000000000
000000000000000000000000000000000000
000000000000000000000000000000000000
000000000000000000000000000000000000
000000000000000000000000000000000000
000000000010000000000000000000000000
000000000100000000000000000000000000
000000000100000000000000000000000000
000000000100000000000000000000000000
000000000100000000000000000000000001
000000000100000000000000010000000001
000000000100000000001000000000000001
000000000010000000010000000000000001
000000000000000000010000000000000001
000000000000000000001000000000000000
000000000000000000000000000000000000
000000000000000000000000000000000000
000000000000000000000000000000000000
000000000000000000000000000000000000
000000000000000000000000000000000000
000000000000000000000000000000000000
000000000000000000000000000000000000
000000000000000000000000000000000000
000000000000000000000000000000000000
000000000000000000000000000000000000
000000000000000000000000000000000000
000000000000000000000000000000000000
000000000000000000000000000000000000
000000000000000000000000000000000000
000000000000000000000000000000000000
000000000000000100000000000000000000
000000000010000100000000000000000000
000000000010001000000000000000000000
000001000100001000000000000000000000
000001000110001000000000010000000000
000001000110001000000000010000100001
000001000110001000000000010001000001
000001000110001000000000100001000010
000001000110001000001000100001000010
000001000110000100010000010001000010
000001000100000100100000010001000010
000001000010000000100000010001000010
000001000000000000011000000000100001
000000000000000000001000000000000000
000000000000000000000000000000000000
000000000000000000000000000000000000
000000000000000000000000000000000000
000000000000000000000000000000000000
000000000000000000000000000000000000
000000000000000000000000000000000000
000000000000000000000000000000000000
000000000000000000000000000000000000
000000000000000000000000000000000000
000000000000000000000000000000000000
000000000000000000000000000000000000
000000000000000000000000000000000000
000000000000000000000000000000000000
000000000000000100000000000000000000
000000000010001000000000000000000000
000001000010001000000000000000000000
000001000100001100000000010000100000
000010000100001100000000010000100000
000010000110001100000000100001000001
000010000110001100000000100001100010
000010000110001100000000110001100010
000011000110001100001000100001100010
000010000110001100010000110001100011
000010000110001000011000100001100011
000010000110001000101000100001100011
000010000100000100100000010001000010
000010000010000000011000010001000010
000001000000000000001000000000100001
000001000000000000000000000000000000
000000000000000000000000000000000000
000000000000000000000000000000000000
000000000000000000000000000000000000
000000000000000000000000000000000000
000000000000000000000000000000000000
000000000000000000000000000000000000
000000000000000000000000000000000000
000000000000000000000000000000000000
000000000000000000000000000000000000
000000000000000000000000000000000000
000000000000000000000000000000000000
000000000000000100000000000000000000
000000000000001000000000000000000000
000001000010001000000000000000000000
000010000010001100000000010000100000
000010000100001100000000010000100000
000011000100001100000000100001000001
000011000100001100000000100001100010
000011000100001100000000110001100010
000011000010001100000000110001100011
000011000100001100001000110001100011
000011000100001100011000110001100010
000011000100001100101000100001000010
000011000110001000110000100001100010
000010000100001000100000100001100011
000010000010000100010000010001000010
000001000000000000001000010001000010
000001000000000000000000000000100001
000000000000000000000000000000000000
000000000000000000000000000000000000
000000000000000000000000000000000000
000000000000000000000000000000000000
000000000000000000000000000000000000
000000000000000000000000000000000000
000000000000000000000000000000000000
000000000000000000000000000000000000
000000000000000000000000000000000000
000000000000000000000000000000000000
000000000000000000000000000000000000
000000000000000100000000000000000000
000001000000000100000000000000000000
000010000010001000000000000000000000
000010000010001000000000010000100000
000011000010001000000000100001000001
000010000010001000000000100001100010
000011000010000100000000110001100011
000010000010000100000000100001100011
000010000010000100001000100001000011
000010000010001000010000100001000010
000010000010001000100000100000100010
000010000100001000101000100000100010
000010000100001000101000100001000010
000010000110000100011000100001100010
000001000100000100010000100001100010
000001000010000000000000010001000010
000001000000000000000000000000100001
000000000000000000000000000000000000
000000000000000000000000000000000000
000000000000000000000000000000000000
000000000000000000000000000000000000
000000000000000000000000000000000000
000000000000000000000000000000000000
000000000000000000000000000000000000
000000000000000000000000000000000000
000000000000000000000000000000000000
000000000000000000000000000000000000
000000000000000000000000000000000000
000000000000000100000000000000000000
000001000000000100000000000000000000
000010000000000100000000000000000000
000010000000000100000000010001000001
000011000010000100000000010001000010
000010000010000100000000100001100010
000010000010000100000000100001000011
000001000000000000000000100000100010
000001000000000100001000010000100010
000001000000000100011000010000000010
000001000010001000101000010000000001
000001000010001000110000100000100001
000001000100001000101000110001000001
000001000110000100010000110001000010
000001000100000100001000100001100010
000001000010000000000000010001000010
000000000000000000000000000000100010
000000000000000000000000000000000001
000000000000000000000000000000000000
000000000000000000000000000000000000
000000000000000000000000000000000000
000000000000000000000000000000000000
000000000000000000000000000000000000
000000000000000000000000000000000000
000000000000000000000000000000000000
000000000000000000000000000000000000
000000000000000000000000000000000000
000000000000000000000000000000000000
000000000000000000000000000000000000
000001000000000100000000000000000000
000010000000000100000000010000100001
000011000000000100000000010000100010
000010000000000100000000010001000010
000001000000000000000000100001000011
000001000000000000000000100001000010
000000000000000000001000010000100010
000000000000000100010000010000000010
000000000000000100100000010000000001
000001000000001000110000010000000001
000000000010001000101000100000100001
000001000100001000011000110001000001
000001000110000100001000110001100001
000000000100000000000000100001100010
000000000010000000000000010001000010
000000000000000000000000000000100010
000000000000000000000000000000000001
000000000000000000000000000000000000
000000000000000000000000000000000000
000000000000000000000000000000000000
000000000000000000000000000000000000
000000000000000000000000000000000000
000000000000000000000000000000000000
000000000000000000000000000000000000
000000000000000000000000000000000000
000000000000000000000000000000000000
000000000000000000000000000000000000
000000000000000000000000000000000000
000010000000000000000000000000000001
000010000000000100000000000000000001
000011000000000100000000010000100010
000010000000000100000000010001000011
000001000000000100000000010001000010
000001000000000100000000010001000010
000000000000001000001000010000100001
000000000000001000011000010000000001
000000000000001000101000010000000000
000000000010001000110000010000100000
000001000100001000101000110001000000
000001000110000100010000110001100000
000000000110000100000000110001100001
000000000100000000000000100001000010
000000000000000000000000010000100010
000000000000000000000000000000000010
000000000000000000000000000000000001
000000000000000000000000000000000000
000000000000000000000000000000000000
000000000000000000000000000000000000
000000000000000000000000000000000000
000000000000000000000000000000000000
000000000000000000000000000000000000
000000000000000000000000000000000000
000000000000000000000000000000000000
000000000000000000000000000000000000
000000000000000000000000000000000000
000000000000000000000000000000000000
000001000000000000000000000000000001
000010000000000100000000000000000010
000011000000000100000000010000100011
000010000000001000000000010001000011
000010000000001000000000010001000010
000001000000001000000000010001000001
000001000000001100010000010000100001
000001000000001100101000010000100000
000001000000001100110000010001000000
000001000010001100101000100001000000
000001000100001000011000110001100000
000001000110000100001000110001100000
000000000100000100000000100001000001
000000000010000000000000010000100010
000000000000000000000000000000000010
000000000000000000000000000000000010
000000000000000000000000000000000001
000000000000000000000000000000000000
000000000000000000000000000000000000
000000000000000000000000000000000000
000000000000000000000000000000000000
000000000000000000000000000000000000
000000000000000000000000000000000000
000000000000000000000000000000000000
000000000000000000000000000000000000
000000000000000000000000000000000000
000000000000000000000000000000000000
000000000000000000000000000000000001
000001000000000000000000000000000010
000010000000000100000000000000000010
000011000000001000000000000000100011
000011000000001000000000010000100010
000011000000001100000000010001000010
000010000000001100001000010001000001
000010000000001100100000010001000000
000010000000001100110000010001100000
000010000010001100110000100001100000
000010000010001100101000110001100000
000001000100001100001000110001100000
000001000110001000000000110001000000
000000000100000100000000010000100001
000000000010000000000000000000000010
000000000000000000000000000000000010
000000000000000000000000000000000010
000000000000000000000000000000000001
000000000000000000000000000000000000
000000000000000000000000000000000000
000000000000000000000000000000000000
000000000000000000000000000000000000
000000000000000000000000000000000000
000000000000000000000000000000000000
000000000000000000000000000000000000
000000000000000000000000000000000000
000000000000000000000000000000000000
000000000000000000000000000000000000
000000000000000000000000000000000001
000001000000000000000000000000000010
000010000000000100000000000000000011
000010000000001000000000000000000010
000011000000001000000000000000100010
000011000010001100001000010001000001
000011000010001100011000010001100000
000011000010001100101000010001100000
000011000010001100110000100001100000
000010000010001000101000110001100000
000010000100001000011000110001100000
000010000110001100001000110001000000
000001000100001100000000100000100001
000001000100001000000000010000000010
000000000010000100000000000000000010
000000000000000000000000000000000010
000000000000000000000000000000000010
000000000000000000000000000000000001
000000000000000000000000000000000000
000000000000000000000000000000000000
000000000000000000000000000000000000
000000000000000000000000000000000000
000000000000000000000000000000000000
000000000000000000000000000000000000
000000000000000000000000000000000000
000000000000000000000000000000000000
000000000000000000000000000000000000
000000000000000000000000000000000001
000000000000000000000000000000000010
000000000000000000000000000000000010
000001000010000100000000000000000010
000001000010000100000000000000000010
000010000010001000001000000000100001
000010000010001000001000000001000000
000010000010001000100000010001100000
000011000100001000110000100001100000
000011000100000100110000100001100000
000010000100001000100000110001100000
000010000100001000001001000001000000
000010000100001000000000100000100000
000010000100001100000000010000000001
000001000010001000000000000000000010
000000000010001000000000000000000010
000000000000000100000000000000000010
000000000000000000000000000000000001
000000000000000000000000000000000000
000000000000000000000000000000000000
000000000000000000000000000000000000
000000000000000000000000000000000000
000000000000000000000000000000000000
000000000000000000000000000000000000
000000000000000000000000000000000000
000000000000000000000000000000000000
000000000000000000000000000000000000
000000000000000000000000000000000000
000000000000000000000000000000000001
000000000000000000000000000000000010
000000000010000000000000000000000010
000000000100000000000000000000000010
000001000100000100000000000000000010
000001000100000100001000000000100001
000001000100000100011000010001000000
000001000100000100101000010001100000
000010000100000000110000100001100000
000010000100000000101000110001100000
000010000100000000010000110001100000
000010000110000100001000110001000000
000010000100001000000000100000100001
000010000100001000000000010000000010
000010000010001100000000000000000010
000001000010001000000000000000000011
000000000000000100000000000000000010
000000000000000000000000000000000001
000000000000000000000000000000000000
000000000000000000000000000000000000
000000000000000000000000000000000000
000000000000000000000000000000000000
000000000000000000000000000000000000
000000000000000000000000000000000000
000000000000000000000000000000000000
000000000000000000000000000000000000
000000000000000000000000000000000000
000000000000000000000000000000000000
000000000000000000000000000000000001
000000000010000000000000000000000010
000000000100000000000000000000000011
000000000100000000000000000000000010
000000000100000000001000010000100001
000001000100000000010000010001000000
000001000100000000101000010001100000
000001000100000000110000100001100000
000001000100000000101000110001100000
000001000110000000011000110001000000
000001000110000000001001000001000000
000001000110000000000000110001000001
000010000100000100000000010000100010
000010000100001000000000010000100010
000010000010001100000000000000000011
000001000010001000000000000000000010
000000000010000100000000000000000010
000000000000000000000000000000000001
000000000000000000000000000000000000
000000000000000000000000000000000000
000000000000000000000000000000000000
000000000000000000000000000000000000
000000000000000000000000000000000000
000000000000000000000000000000000000
000000000000000000000000000000000000
000000000000000000000000000000000000
000000000000000000000000000000000000
000000000000000000000000000000000000
000000000010000000000000000000000001
000000000100000000000000000000000010
000000000100000000000000000000000010
000000000100000000000000000000100010
000000000100000000001000010001000001
000001000100000000011000100001100001
000001000100000000110000100001100000
000001000100000000110000100001000000
000000000100000000101000110000100000
000000000110000000010000110001000000
000000000110000000000000110001000001
000000000110000000000000100001000010
000001000100000100000000010000100010
000010000100001000000000000000100011
000011000100001100000000000000000010
000010000010001000000000000000000010
000001000010000100000000000000000001
000000000010000000000000000000000000
000000000000000000000000000000000000
000000000000000000000000000000000000
000000000000000000000000000000000000
000000000000000000000000000000000000
000000000000000000000000000000000000
000000000000000000000000000000000000
000000000000000000000000000000000000
000000000000000000000000000000000000
000000000000000000000000000000000000
000000000000000000000000000000000000
000000000010000000000000000000000001
000000000100000000000000000000000010
000000000110000000000000000000100010
000000000110000000001000010001000010
000000000100000000010000010001100010
000001000100000000100000100001100001
000001000100000000110000100001000001
000000000100000000101000110000100001
000000000110000000011000110000100001
000000000110000000001000110000100001
000000000110000000000000110001000010
000000000110000000000000100001000010
000001000100000100000000010001000011
000010000100001000000000010000100011
000011000100001100000000000000000010
000010000100001000000000000000000001
000001000010000100000000000000000000
000000000010000000000000000000000000
000000000000000000000000000000000000
000000000000000000000000000000000000
000000000000000000000000000000000000
000000000000000000000000000000000000
000000000000000000000000000000000000
000000000000000000000000000000000000
000000000000000000000000000000000000
000000000000000000000000000000000000
000000000000000000000000000000000000
000000000000000000000000000000000000
000000000010000000000000000000000001
000000000100000000000000000000000010
000000000110000000000000010000100010
000001000110000100001000010001000010
000001000110000100011000100001100010
000001000110000100101000110001000010
000001000110000100110000110001000010
000001000110000000100000110000100010
000000000110000000010000110000100010
000000000100000000001000110001000010
000000000100000100000000100001000011
000001000100000100000000010001000011
000010000100001000000000010001000010
000010000100001100000000000000100010
000011000100001100000000000000000001
000010000010001000000000000000000000
000001000010000100000000000000000000
000000000010000000000000000000000000
000000000000000000000000000000000000
000000000000000000000000000000000000
000000000000000000000000000000000000
000000000000000000000000000000000000
000000000000000000000000000000000000
000000000000000000000000000000000000
000000000000000000000000000000000000
000000000000000000000000000000000000
000000000000000000000000000000000000
000000000000000000000000000000000000
000000000010000000000000000000000001
000000000100000000000000000000000010
000000000100000100001000010000100010
000001000110000100010000100001000011
000001000110000100100000110001100011
000001000110000100101000110001100011
000001000110000100101000110001000011
000001000110000100011000110000100011
000001000100000100001000110001000011
000001000100001000000000100001000011
000001000010001000000000010001100011
000010000010001000000000010001100010
000011000010001100000000000001000010
000011000010001100000000000000100001
000011000010001000000000000000000000
000001000010000100000000000000000000
000000000010000000000000000000000000
000000000000000000000000000000000000
000000000000000000000000000000000000
000000000000000000000000000000000000
000000000000000000000000000000000000
000000000000000000000000000000000000
000000000000000000000000000000000000
000000000000000000000000000000000000
000000000000000000000000000000000000
000000000000000000000000000000000000
000000000000000000000000000000000000
000000000000000000000000000000000000
000000000000000000000000000000000000
000000000010000000000000000000000001
000000000100000100001000010000100010
000001000100000100011000100001000010
000001000100001000101000110001100010
000010000100001000101000110001100011
000010000100001000100000110001100011
000010000010001000010000110001100011
000010000010001100001000100001100010
000010000010001100000000010001100010
000010000000001100000000010001100010
000011000000001100000000000001000001
000011000000001100000000000000100000
000011000000001000000000000000000000
000010000000000100000000000000000000
000001000000000100000000000000000000
000000000000000000000000000000000000
000000000000000000000000000000000000
000000000000000000000000000000000000
000000000000000000000000000000000000
000000000000000000000000000000000000
000000000000000000000000000000000000
000000000000000000000000000000000000
000000000000000000000000000000000000
000000000000000000000000000000000000
000000000000000000000000000000000000
000000000000000000000000000000000000
000000000000000000000000000000000000
000000000000000000000000000000000000
000000000000000000000000000000000000
000000000000000100001000010000100001
000000000010000100010000100000100001
000001000010001000100000100001000010
000010000010001000100000100001100010
000010000010001100011000100001100010
000011000000001100001000100001100010
000011000000001100000000010001100001
000011000000001100000000000001100001
000011000000001100000000000001000000
000011000000001100000000000000100000
000010000000001000000000000000000000
000010000000000100000000000000000000
000001000000000100000000000000000000
000000000000000000000000000000000000
000000000000000000000000000000000000
000000000000000000000000000000000000
000000000000000000000000000000000000
000000000000000000000000000000000000
000000000000000000000000000000000000
000000000000000000000000000000000000
000000000000000000000000000000000000
000000000000000000000000000000000000
000000000000000000000000000000000000
000000000000000000000000000000000000
000000000000000000000000000000000000
000000000000000000000000000000000000
000000000000000000000000000000000000
000000000000000000000000000000000000
000000000000000000000000000000000000
000000000000000000000000010000000000
000000000000000100001000010000100000
000001000000000100001000010001000000
000010000000001000001000010001000000
000010000000001000000000010001000000
000010000000001000000000000001000000
000010000000001000000000000000100000
000010000000001000000000000000100000
000010000000000100000000000000000000
000001000000000000000000000000000000
000001000000000000000000000000000000
000000000000000000000000000000000000
000000000000000000000000000000000000
000000000000000000000000000000000000
000000000000000000000000000000000000
000000000000000000000000000000000000
000000000000000000000000000000000000
000000000000000000000000000000000000
000000000000000000000000000000000000
000000000000000000000000000000000000
000000000000000000000000000000000000
000000000000000000000000000000000000
000000000000000000000000000000000000
000000000000000000000000000000000000
000000000000000000000000000000000000
000000000000000000000000000000000000
000000000000000000000000000000000000
000000000000000000000000000000000000
000000000000000000000000000000000000
000000000000000000000000000000000000
000000000000000000000000000000000000
000000000000000000000000000000000000
000000000000000000000000000000000000
000000000000000000000000000000000000
000000000000000000000000000000000000
000000000000000000000000000000000000
000000000000000000000000000000000000
000000000000000000000000000000000000
000000000000000000000000000000000000
000000000000000000000000000000000000
000000000000000000000000000000000000
000000000000000000000000000000000000
000000000000000000000000000000000000
000000000000000000000000000000000000
000000000000000000000000000000000000
000000000000000000000000000000000000
000000000000000000000000000000000000
000000000000000000000000000000000000
000000000000000000000000000000000000
000000000000000000000000000000000000
000000000000000000000000000000000000
000000000000000000000000000000000000
000000000000000000000000000000000000
000000000000000000000000000000000000
000000000000000000000000000000000000
000000000000000000000000000000000000
000000000000000000000000000000000000
000000000000000000000000000000000000
000000000000000000000000000000000000
000000000000000000000000000000000000
000000000000000000000000000000000000
000000000000000000000000000000000000
000000000000000000000000000000000000
000000000000000000000000000000000000
000000000000000000000000000000000000
000000000000000000000000000000000000
000000000000000000000000000000000000
000000000000000000000000000000000000
000000000000000000000000000000000000
000000000000000000000000000000000000
000000000000000000000000000000000000
000000000000000000000000000000000000
000000000000000000000000000000000000
000000000000000000000000000000000000
000000000000000000000000000000000000
000000000000000000000000000000000000
000000000000000000000000000000000000
000000000000000000000000000000000000
000000000000000000000000000000000000
000000000000000000000000000000000000
000000000000000000000000000000000000
000000000000000000000000000000000000
000000000000000000000000000000000000
000000000000000000000000000000000000
000000000000000000000000000000000000
000000000000000000000000000000000000
000000000000000000000000000000000000
000000000000000000000000000000000000
000000000000000000000000000000000000
000000000000000000000000000000000000
000000000000000000000000000000000000
000000000000000000000000000000000000
000000000000000000000000000000000000
000000000000000000000000000000000000
000000000000000000000000000000000000
000000000000000000000000000000000000
000000000000000000000000000000000000
000000000000000000000000000000000000
000000000000000000000000000000000000
000000000000000000000000000000000000
000000000000000000000000000000000000
000000000000000000000000000000000000
000000000000000000000000000000000000
000000000000000000000000000000000000
000000000000000000000000000000000000
000000000000000000000000000000000000
000000000000000000000000000000000000
000000000000000000000000000000000000
000000000000000000000000000000000000
000000000000000000000000000000000000
000000000000000000000000000000000000
000000000000000000000000000000000000
000000000000000000000000000000000000
000000000000000000000000000000000000
000000000000000000000000000000000000
000000000000000000000000000000000000
000000000000000000000000000000000000
000000000000000000000000000000000000
000000000000000000000000000000000000
000000000000000000000000000000000000
000000000000000000000000000000000000
000000000000000000000000000000000000
000000000000000000000000000000000000
000000000000000000000000000000000000
000000000000000000000000000000000000
000000000000000000000000000000000000
000000000000000000000000000000000000
000000000000000000000000000000000000
000000000000000000000000000000000000
000000000000000000000000000000000000
000000000000000000000000000000000000
000000000000000000000000000000000000
000000000000000000000000000000000000
000000000000000000000000000000000000
000000000000000000000000000000000000
000000000000000000000000000000000000
000000000000000000000000000000000000
000000000000000000000000000000000000
000000000000000000000000000000000000
000000000000000000000000000000000000
000000000000000000000000000000000000
000000000000000000000000000000000000
000000000000000000000000000000000000
000000000000000000000000000000000000
000000000000000000000000000000000000
000000000000000000000000000000000000
000000000000000000000000000000000000
000000000000000000000000000000000000
000000000000000000000000000000000000
000000000000000000000000000000000000
000000000000000000000000000000000000
000000000000000000000000000000000000
000000000000000000000000000000000000
000000000000000000000000000000000000
000000000000000000000000000000000000
000000000000000000000000000000000000
000000000000000000000000000000000000
000000000000000000000000000000000000
000000000000000000000000000000000000
000000000000000000000000000000000000
000000000000000000000000000000000000
000000000000000000000000000000000000
000000000000000000000000000000000000
000000000000000000000000000000000000
000000000000000000000000000000000000
000000000000000000000000000000000000
000000000000000000000000000000000000
000000000000000000000000000000000000
000000000000000000000000000000000000
000000000000000000000000000000000000
000000000000000000000000000000000000
000000000000000000000000000000000000
000000000000000000000000000000000000
000000000000000000000000000000000000
000000000000000000000000000000000000
000000000000000000000000000000000000
000000000000000000000000000000100000
000000000000000000000000000000000001
000000000000000000000000000000000000
000000000000000000000000000000000000
000000000000000000000000000000000000
000000000000000000000000000000000000
000000000000000000000000000000000000
000000000000000000000000000000000000
000000000000000000000000000000000000
000000000000000000000000000000000000
000000000000000000000000000000000000
000000000000000000000000000000000000
000000000000000000000000000000000000
000000000000000000000000000000000000
000000000000000000000000000000000000
000000000000000000000000000000000000
000000000000000000000000000000000000
000000000000000000000000000000000000
000000000000000000000000000000000000
000000000000000000000000000000000000
000000000000000000000000000000000000
000000000000000000000000000000000000
000000000000000000000000000000000000
000000000000000000000000000000000000
000000000000000000000000010000000000
000000000000000000000000010000000000
000000000000000000000000010000100001
000000000000000000000000010001000001
000000000000000000000000010001000010
000000000000000000000000000000100010
000000000000000000000000000000100001
000000000000000000000000000000000001
000000000000000000000000000000000000
000000000000000000000000000000000000
000000000000000000000000000000000000
000000000000000000000000000000000000
000000000000000000000000000000000000
000000000000000000000000000000000000
000000000000000000000000000000000000
000000000000000000000000000000000000
000000000000000000000000000000000000
000000000000000000000000000000000000
000000000000000000000000000000000000
000000000000000000000000000000000000
000000000000000000000000000000000000
000000000000000000000000000000000000
000000000000000000000000000000000000
000000000000000000000000000000000000
000000000000000000000000000000000000
000000000000000000000000010000000000
000000000000000000000000010000000000
000000000000000000000000100000000000
000000000000000000000000100000000000
000000000000000000000000110000100001
000001000000000000000000100001000010
000001000000000000000000100001100010
000001000000000000000000100001000011
000001000000000000000000010001000010
000001000000000000000000010000100001
000001000000000000000000000000000001
000000000000000000000000000000000000
000000000000000000000000000000000000
000000000000000000000000000000000000
000000000000000000000000000000000000
000000000000000000000000000000000000
000000000000000000000000000000000000
000000000000000000000000000000000000
000000000000000000000000000000000000
000000000000000000000000000000000000
000000000000000000000000000000000000
000000000000000000000000000000000000
000000000000000000000000000000000000
000000000000000000000000000000000000
000000000000000000000000000000000000
000000000000000000000000000000000000
000000000000000000000000000000000000
000000000000000000000000010000000000
000000000000000000000000010000000000
000000000000000000000000100000000000
000001000000000100000000110000000000
000001000000000100000000110000100001
000010000000001000000000110001000010
000010000000001000000000110001100011
000011000000001000000000110001100011
000011000000001000000000110001000011
000011000000001000000000100000100010
000010000000000100000000010000100001
000010000000000100000000010000000000
000001000000000000000000000000000000
000001000000000000000000000000000000
000000000000000000000000000000000000
000000000000000000000000000000000000
000000000000000000000000000000000000
000000000000000000000000000000000000
000000000000000000000000000000000000
000000000000000000000000000000000000
000000000000000000000000000000000000
000000000000000000000000000000000000
000000000000000000000000000000000000
000000000000000000000000000000000000
000000000000000000000000000000000000
000000000000000000000000000000000000
000000000000000000000000000000000000
000000000000000000000000010000000000
000000000000000000000000010000000000
000000000000000100000000010000000000
000001000000000100000000100000000000
000001000000001000000000100000100000
000010000000001100000000100001000001
000011000010001100001000100001100010
000011000010001100001000100001100011
000011000010001100001000100001100011
000011000010001100001000100001000010
000011000100001100001000100000100001
000011000100001000001000100000000001
000011000010001000001000010000000000
000010000010000100001000000000000000
000001000010000000000000000000000000
000001000010000000000000000000000000
000000000000000000000000000000000000
000000000000000000000000000000000000
000000000000000000000000000000000000
000000000000000000000000000000000000
000000000000000000000000000000000000
000000000000000000000000000000000000
000000000000000000000000000000000000
000000000000000000000000000000000000
000000000000000000000000000000000000
000000000000000000000000000000000000
000000000000000000000000000000000000
000000000000000000000000000000000000
000000000000000000000000010000000000
000000000000000100000000010000000000
000000000000001000000000010000000000
000001000000001100001000100000000000
000010000010001100001000100000100001
000011000100001100010000010001100010
000011000100001100010000010001100011
000011000100001000011000010001100011
000010000110001000011000010001000011
000011000110001100011000100000100010
000010000110001100011000100000000001
000011000110001000011000100000000000
000011000110001000011000100000000000
000010000110000100010000010000000000
000001000100000100010000000000000000
000001000100000000001000000000000000
000000000010000000000000000000000000
000000000000000000000000000000000000
000000000000000000000000000000000000
000000000000000000000000000000000000
000000000000000000000000000000000000
000000000000000000000000000000000000
000000000000000000000000000000000000
000000000000000000000000000000000000
000000000000000000000000000000000000
000000000000000000000000000000000000
000000000000000000000000000000000000
000000000000000000000000000000000000
000000000000000000000000000000000000
000000000000000100000000010000000000
000000000010001000001000010000000000
000001000010001100010000010000100001
000010000100001100011000010001000010
000010000110001000011000010010000011
000010000110001000100000000010000011
000010000110000100100000000001000011
000010000110000100011000000000100010
000001000110000100011000010000000001
000010000110001000011000100000000000
000010000110001000011000100000000000
000010000110001000011000100000000000
000010000110001000011000010000000000
000001000110000100010000000000000000
000001000100000000001000000000000000
000000000010000000000000000000000000
000000000000000000000000000000000000
000000000000000000000000000000000000
000000000000000000000000000000000000
000000000000000000000000000000000000
000000000000000000000000000000000000
000000000000000000000000000000000000
000000000000000000000000000000000000
000000000000000000000000000000000000
000000000000000000000000000000000000
000000000000000000000000000000000000
000000000000000000000000000000000000
000000000000000100000000000000000000
000000000000001000001000000000000000
000000000010001100010000000000000000
000001000100001100011000000001000001
000001000110001000011000000001100011
000010000110000100100000000010000011
000001000110000100011000000001100011
000001000110000000011000000001000010
000001000100000000010000000000100001
000001000100000100010000010000000000
000001000100001000011000100000000000
000010000100001000011000100000000000
000010000110001000011000100000000000
000010000110001000011000010000000000
000001000110000100010000000000000000
000000000100000000001000000000000000
000000000010000000000000000000000000
000000000000000000000000000000000000
000000000000000000000000000000000000
000000000000000000000000000000000000
000000000000000000000000000000000000
000000000000000000000000000000000000
000000000000000000000000000000000000
000000000000000000000000000000000000
000000000000000000000000000000000000
000000000000000000000000000000000000
000000000000000000000000000000000000
000000000000000000000000000000000000
000000000000000100001000000000000000
000000000010001000001000000000000000
000000000100001100010000000000100001
000001000100001100011000000001000010
000001000110001000011000000001100011
000001000110000100011000000010000011
000001000100000000010000000001000011
000001000010000000010000000000100001
000001000010000000001000000000000000
000001000010000100001000000000000000
000010000010001000010000010000000000
000010000100001000011000100000000000
000010000110001000100000100000000000
000001000110000100011000010000000000
000000000110000100010000000000000000
000000000010000000001000000000000000
000000000010000000000000000000000000
000000000000000000000000000000000000
000000000000000000000000000000000000
000000000000000000000000000000000000
000000000000000000000000000000000000
000000000000000000000000000000000000
000000000000000000000000000000000000
000000000000000000000000000000000000
000000000000000000000000000000000000
000000000000000000000000000000000000
000000000000000000000000000000000000
000000000000000000000000000000000000
000000000000000100001000000000000000
000000000010000100001000000000000000
000000000100001100010000000000100001
000001000100001100011000000001100010
000001000100001000011000000010000011
000001000100000100010000000001100011
000010000010000000001000000001000010
000010000010000000001000000000100001
000010000000000100001000000000000000
000010000010001000001000000000000000
000010000100001000011000010000100000
000010000110001000011000100000100001
000001000110001000011000100000000000
000001000110000100011000010000000000
000000000100000000001000000000000000
000000000010000000000000000000000000
000000000000000000000000000000000000
000000000000000000000000000000000000
000000000000000000000000000000000000
000000000000000000000000000000000000
000000000000000000000000000000000000
000000000000000000000000000000000000
000000000000000000000000000000000000
000000000000000000000000000000000000
000000000000000000000000000000000000
000000000000000000000000000000000000
000000000000000000000000000000000000
000000000000000000000000000000000000
000000000000000000001000000000000000
000000000010000100010000000000000001
000001000100001000010000000001000010
000001000100001100010000000001100011
000010000100001000010000000010000011
000010000100001000001000000001100010
000011000010000100001000000000100001
000011000010000100000000000000100001
000011000010001000001000000000100001
000011000100001000010000010001000001
000011000110001000100000100001000001
000010001000001000100000100001000001
000001000110000100011000100000100001
000000000100000000010000010000100001
000000000010000000001000000000000000
000000000000000000000000000000000000
000000000000000000000000000000000000
000000000000000000000000000000000000
000000000000000000000000000000000000
000000000000000000000000000000000000
000000000000000000000000000000000000
000000000000000000000000000000000000
000000000000000000000000000000000000
000000000000000000000000000000000000
000000000000000000000000000000000000
000000000000000000000000000000000000
000000000000000000000000000000000000
000000000000000000000000000000000000
000000000000000000001000000000000000
000000000010000100001000000000100001
000001000100001000010000000001000011
000010000100001000010000000010000011
000010000100001000001000000001100011
000011000010001000001000000001000010
000011000010001000001000000000100001
000011000010001000001000000001000001
000011000100001000010000010001000010
000011000110001000100000010001100010
000011000110001000100000100001100011
000010000110000100011000110001100010
000001000100000000010000100001000010
000000000010000000001000010000100010
000000000000000000000000000000100001
000000000000000000000000000000000000
000000000000000000000000000000000000
000000000000000000000000000000000000
000000000000000000000000000000000000
000000000000000000000000000000000000
000000000000000000000000000000000000
000000000000000000000000000000000000
000000000000000000000000000000000000
000000000000000000000000000000000000
000000000000000000000000000000000000
000000000000000000000000000000000000
000000000000000000000000000000000000
000000000000000000000000000000000000
000000000000000000000000000000000001
000000000010000000001000000000100010
000001000010000100001000000001100011
000001000100001000010000010001100011
000010000100001100010000010001100011
000010000100001100001000010001000010
000011000100001100010000010001000010
000011000100001100010000010001100010
000010000110001100011000010001100011
000011001000001000100000100001100011
000011001000000100100000100001100011
000010000110000000011000100001100011
000001000010000000010000100001100011
000000000000000000000000010001000010
000000000000000000000000000000100001
000000000000000000000000000000000001
000000000000000000000000000000000000
000000000000000000000000000000000000
000000000000000000000000000000000000
000000000000000000000000000000000000
000000000000000000000000000000000000
000000000000000000000000000000000000
000000000000000000000000000000000000
000000000000000000000000000000000000
000000000000000000000000000000000000
000000000000000000000000000000000000
000000000000000000000000000000000000
000000000000000000000000000000000000
000000000000000000000000000000000001
000000000000000000001000010001000010
000001000010000100001000010001100011
000001000010000100001000010001100011
000001000010001000001000100001100010
000001000100001100001000100001000010
000001000100001100010000100001000010
000001000110010000011000100001100011
000001001000001100100000100001100011
000010001000001000100000110001000011
000011000110001000011000110001000011
000011000010000100010000100001100011
000010000000000000001000010001100011
000001000000000000000000010001100011
000000000000000000000000000001000010
000000000000000000000000000000100001
000000000000000000000000000000000000
000000000000000000000000000000000000
000000000000000000000000000000000000
000000000000000000000000000000000000
000000000000000000000000000000000000
000000000000000000000000000000000000
000000000000000000000000000000000000
000000000000000000000000000000000000
000000000000000000000000000000000000
000000000000000000000000000000000000
000000000000000000000000000000000000
000000000000000000000000000000000000
000000000000000000000000010000100001
000000000000000000000000100001000010
000000000010000000000000100001100011
000000000010000100001000100010000011
000000000010001000001000100001100010
000000000100001100001000100001100010
000000000110001100010000100001000011
000000001000001100011000110001000011
000001001000001100100000110001000010
000001000110001000011000110000100010
000011000100001000010000110001000010
000011000000000100001000100001100010
000010000000000000000000100001100011
000001000000000000000000010001100011
000000000000000000000000000001000010
000000000000000000000000000000100001
000000000000000000000000000000000000
000000000000000000000000000000000000
000000000000000000000000000000000000
000000000000000000000000000000000000
000000000000000000000000000000000000
000000000000000000000000000000000000
000000000000000000000000000000000000
000000000000000000000000000000000000
000000000000000000000000000000000000
000000000000000000000000000000000000
000000000000000000000000000000000000
000000000000000000000000010000000000
000000000000000000000000100000000001
000000000000000000000000100001000010
000000000010000000000000100001100011
000000000010000100000000100010000011
000000000010001000000000100001100011
000000000100001100001000100001100011
000000000110001000011000100001000010
000000000110001000100000110001000010
000000000110001000100000110000100010
000001000100001100011000110000100010
000011000000001000010000110001000010
000011000000000100000000100001100011
000010000000000000000000100001100011
000001000000000000000000100001100011
000000000000000000000000010000100010
000000000000000000000000000000000000
000000000000000000000000000000000000
000000000000000000000000000000000000
000000000000000000000000000000000000
000000000000000000000000000000000000
000000000000000000000000000000000000
000000000000000000000000000000000000
000000000000000000000000000000000000
000000000000000000000000000000000000
000000000000000000000000000000000000
000000000000000000000000000000000000
000001000000000000000000000000000000
000001000000000000000000100000000000
000001000000000000000000100000000001
000001000000000000000000110000100010
000000000010000000000000100001100011
000000000010000100000000100010000011
000000000100001000001000100001100011
000000000110001000010000100001100011
000000000110001000011000100001000010
000000000110000100100000110001000010
000001000100001000011000110001000010
000010000010001000010000110001000010
000011000000001000000000110001100011
000011000000001000000000110001100011
000001000000000100000000100001100011
000000000000000000000000100001000010
000000000000000000000000100000100001
000000000000000000000000010000000000
000000000000000000000000010000000000
000000000000000000000000000000000000
000000000000000000000000000000000000
000000000000000000000000000000000000
000000000000000000000000000000000000
000000000000000000000000000000000000
000000000000000000000000000000000000
000000000000000000000000000000000000
000000000000000000000000000000000000
000000000000000000000000000000000000
000001000000000000000000010000000000
000001000000000000000000100000000000
000001000000000000000000100000000001
000001000000000000000000110000100010
000001000010000100000000100001000011
000000000100001000001000100001100011
000000000110001000010000100001100011
000000000110001000011000100001100011
000000000110000100100000110001100011
000001000100000000100000110001100011
000010000010000100010000110001100011
000011000000001000001000110001100011
000011000000001000000000100001100011
000010000000001000000000100001100011
000001000000000100000000100001100010
000000000000000000000000100000100001
000000000000000000000000100000000000
000000000000000000000000010000000000
000000000000000000000000010000000000
000000000000000000000000000000000000
000000000000000000000000000000000000
000000000000000000000000000000000000
000000000000000000000000000000000000
000000000000000000000000000000000000
000000000000000000000000000000000000
000000000000000000000000000000000000
000000000000000000000000000000000000
000000000000000000000000000000000000
000001000000000000000000010000000000
000010000000000000000000100000000000
000010000000000000000000110000000000
000010000010000000000000110000100001
000001000010000100000000110000100010
000001000100001000001000100001100011
000001000110001000010000110001100011
000010000110001000100000110001100011
000010000100000100011000100010000011
000011000100000000011000100001100011
000011000010000100001000100001100011
000011000000001000000000010010000011
000010000000001000000000010001100011
000001000000001000000000010001100010
000000000000000100000000010000100001
000000000000000100000000100000100000
000000000000000000000000010000000000
000000000000000000000000010000000000
000000000000000000000000010000000000
000000000000000000000000000000000000
000000000000000000000000000000000000
000000000000000000000000000000000000
000000000000000000000000000000000000
000000000000000000000000000000000000
000000000000000000000000000000000000
000000000000000000000000000000000000
000000000000000000000000000000000000
000001000000000000000000000000000000
000001000000000000000000010000000000
000010000000000000000000010000000000
000011000010000000000000100000000000
000011000100000000000000110000000000
000011000110000100001000110000100001
000011000110001000010000110001000010
000011000110001000011000110001000011
000011000110001000011000100001100011
000011000100000100011000100001100011
000011000010000100010000010001100011
000011000010000100001000010001100011
000011000000001000000000010001100010
000001000000001100000000010001000001
000000000000001000000000010000100001
000000000000000100000000010000000000
000000000000000000000000010000000000
000000000000000000000000010000000000
000000000000000000000000010000000000
000000000000000000000000000000000000
000000000000000000000000000000000000
000000000000000000000000000000000000
000000000000000000000000000000000000
000000000000000000000000000000000000
000000000000000000000000000000000000
000000000000000000000000000000000000
000000000000000000000000000000000000
000000000000000000000000000000000000
000000000000000000000000000000000000
000001000000000000000000000000000000
000010000000000000000000010000000000
000011000010000000000000010000000000
000011000100000000001000100000000000
000011000110000100010000100000000000
000100000110001000011000100000000000
000011000110001000100000010000000001
000100000100001100011000010000100001
000011000010001000010000010000100001
000011000010001000001000000000100001
000010000000001100000000000000100001
000001000000001100000000000000100001
000000000000001100000000000000000000
000000000000001000000000000000000000
000000000000000100000000000000000000
000000000000000000000000000000000000
000000000000000000000000000000000000
000000000000000000000000000000000000
000000000000000000000000000000000000
000000000000000000000000000000000000
000000000000000000000000000000000000
000000000000000000000000000000000000
000000000000000000000000000000000000
000000000000000000000000000000000000
000000000000000000000000000000000000
000000000000000000000000000000000000
000000000000000000000000000000000000
000000000000000000000000000000000000
000000000000000000000000000000000000
000001000010000000000000000000000000
000010000010000000000000000000000000
000010000110000000001000000000000000
000010000110000100010000000000000000
000011000110000100011000000000000000
000010000110001000011000000000000000
000010000100001100011000000000000000
000010000010001100010000000000000000
000001000000001100001000000000000000
000000000000001100000000000000000000
000000000000001100000000000000000000
000000000000001000000000000000000000
000000000000000100000000000000000000
000000000000000000000000000000000000
000000000000000000000000000000000000
000000000000000000000000000000000000
000000000000000000000000000000000000
000000000000000000000000000000000000
000000000000000000000000000000000000
000000000000000000000000000000000000
000000000000000000000000000000000000
000000000000000000000000000000000000
000000000000000000000000000000000000
000000000000000000000000000000000000
000000000000000000000000000000000000
000000000000000000000000000000000000
000000000000000000000000000000000000
000000000000000000000000000000000000
000000000010000000000000000000000000
000000000100000000000000000000000000
000000000100000000001000000000000000
000001000110000000010000000000000000
000001000100000100011000000000000000
000000000100000100011000000000000000
000000000010001000010000000000000000
000000000000001100001000000000000000
000000000000001100000000000000000000
000000000000001000000000000000000000
000000000000001000000000000000000000
000000000000000100000000000000000000
000000000000000000000000000000000000
000000000000000000000000000000000000
000000000000000000000000000000000000
000000000000000000000000000000000000
000000000000000000000000000000000000
000000000000000000000000000000000000
000000000000000000000000000000000000
000000000000000000000000000000000000
000000000000000000000000000000000000
000000000000000000000000000000000000
000000000000000000000000000000000000
000000000000000000000000000000000000
000000000000000000000000000000000000
000000000000000000000000000000000000
000000000000000000000000000000000000
000000000000000000000000000000000000
000000000000000000000000000000000000
000000000010000000000000000000000000
000000000010000000001000000000000000
000000000010000000010000000000000000
000000000010000000010000000000000000
000000000000000000001000000000000000
000000000000000000001000000000000000
000000000000000000000000000000000000
000000000000000000000000000000000000
000000000000000000000000000000000000
000000000000000000000000000000000000
000000000000000000000000000000000000
000000000000000000000000000000000000
000000000000000000000000000000000000
000000000000000000000000000000000000
000000000000000000000000000000000000
000000000000000000000000000000000000
000000000000000000000000000000000000
000000000000000000000000000000000000
000000000000000000000000000000000000
000000000000000000000000000000000000
000000000000000000000000000000000000
000000000000000000000000000000000000
000000000000000000000000000000000000
000000000000000000000000000000000000
000000000000000000000000000000000000
000000000000000000000000000000000000
000000000000000000000000000000000000
000000000000000000000000000000000000
000000000000000000000000000000000000
000000000000000000000000000000000000
000000000000000000000000000000000000
000000000000000000000000000000000000
000000000000000000000000000000000000
000000000000000000000000000000000000
000000000000000000000000000000000000
000000000000000000000000000000000000
000000000000000000000000000000000000
000000000000000000000000000000000000
000000000000000000000000000000000000
000000000000000000000000000000000000
000000000000000000000000000000000000
000000000000000000000000000000000000
000000000000000000000000000000000000
000000000000000000000000000000000000
000000000000000000000000000000000000
000000000000000000000000000000000000
000000000000000000000000000000000000
000000000000000000000000000000000000
000000000000000000000000000000000000
000000000000000000000000000000000000
000000000000000000000000000000000000
000000000000000000000000000000000000
000000000000000000000000000000000000
000000000000000000000000000000000000
000000000000000000000000000000000000
000000000000000000000000000000000000
000000000000000000000000000000000000
000000000000000000000000000000000000
000000000000000000000000000000000000
000000000000000000000000000000000000
000000000000000000000000000000000000
000000000000000000000000000000000000
000000000000000000000000000000000000
000000000000000000000000000000000000
000000000000000000000000000000000000
000000000000000000000000000000000000
000000000000000000000000000000000000
000000000000000000000000000000000000
000000000000000000000000000000000000
000000000000000000000000000000000000
000000000000000000000000000000000000
000000000000000000000000000000000000
000000000000000000000000000000000000
000000000000000000000000000000000000
000000000000000000000000000000000000
000000000000000000000000000000000000
000000000000000000000000000000000000
000000000000000000000000000000000000
000000000000000000000000000000000000
000000000000000000000000000000000000
000000000000000000000000000000000000
000000000000000000000000000000000000
000000000000000000000000000000000000
000000000000000000000000000000000000
000000000000000000000000000000000000
000000000000000000000000000000000000
000000000000000000000000000000000000
000000000000000000000000000000000000
000000000000000000000000000000000000
000000000000000000000000000000000000
000000000000000000000000000000000000
000000000000000000000000000000000000
000000000000000000000000000000000000
000000000000000000000000000000000000
000000000000000000000000000000000000
000000000000000000000000000000000000
000000000000000000000000000000000000
000000000000000000000000000000000000
000000000000000000000000000000000000
000000000000000000000000000000000000
000000000000000000000000000000000000
000000000000000000000000000000000000
000000000000000000000000000000000000
000000000000000000000000000000000000
000000000000000000000000000000000000
000000000000000000000000000000000000
000000000000000000000000000000000000
000000000000000000000000000000000000
000000000000000000000000000000000000
000000000000000000000000000000000000
000000000000000000000000000000000000
000000000000000000000000000000000000
000000000000000000000000000000000000
000000000000000000000000000000000000
000000000000000000000000000000000000
000000000000000000000000000000000000
000000000000000000000000000000000000
000000000000000000000000000000000000
000000000000000000000000000000000000
000000000000000000000000000000000000
000000000000000000000000000000000000
000000000000000000000000000000000000
000000000000000000000000000000000000
000000000000000000000000000000000000
000000000000000000000000000000000000
000000000000000000000000000000000000
000000000000000000000000000000000000
000000000000000000000000000000000000
000000000000000000000000000000000000
000000000000000000000000000000000000
000000000000000000000000000000000000
000000000000000000000000000000000000
000000000000000000000000000000000000
000000000000000000000000000000000000
000000000000000000000000000000000000
000000000000000000000000000000000000
000000000000000000000000000000000000
000000000000000000000000000000000000
000000000000000000000000000000000000
000000000000000000000000000000000000
000000000000000000000000000000000000
000000000000000000000000000000000000
000000000000000000000000000000000000
000000000000000000000000000000000000
000000000000000000000000000000000000
000000000000000000000000000000000000
000000000000000000000000000000000000
000000000000000000000000000000000000
000000000000000000000000000000000000
000000000000000000000000000000000000
000000000000000000000000000000000000
000000000000000000000000000000000000
000000000000000000000000000000000000
000000000000000000000000000000000000
000000000000000000000000000000000000
000000000000000000000000000000000000
000000000000000000000000000000000000
000000000000000000000000000000000000
000000000000000000000000000000000000
000000000000000000000000000000000000
000000000000000000000000000000000000
000000000000000000000000000000000000
000000000000000000000000000000000000
000000000000000000000000000000000000
000000000000000000000000000000000000
000000000000000000000000000000000000
000000000000000000000000000000000000
000000000000000000000000000000000000
000000000000000000000000000000000000
000000000000000000000000000000000000
000000000000000000000000000000000000
000000000000000000000000000000000000
000000000000000000000000000000000000
000000000000000000000000000000000000
000000000000000000000000000000000000
000001000000000000000000000000000000
000001000000000000000000000000000000
000000000000000000000000000000000000
000000000000000000000000000000000000
000000000000000000000000000000000000
000000000000000000000000000000000000
000000000000000000000000000000000000
000000000000000000000000000000000000
000000000000000000000000000000000000
000000000000000000000000000000000000
000000000000000000000000000000000000
000000000000000000000000000000000000
000000000000000000000000000000000000
000000000000000000000000000000000000
000000000000000000000000000000000000
000000000000000000000000000000000000
000000000000000000000000000000000000
000000000000000000000000000000000000
000000000000000000000000000000000000
000000000000000000000000000000000000
000000000000000000000000000000000000
000000000000000000000000000000000000
000000000000000000000000000000000000
000000000000000000000000000000100000
000000000000000000000000000001000000
000001000000000100000000000001000000
000001000000000100000000000001000000
000010000010000100000000000001000000
000010000010000000000000000001000000
000010000100000000000000000000100000
000010000010000000000000000000100000
000010000010000000000000000000000000
000001000000000000000000000000000000
000001000000000000000000000000000000
000000000000000000000000000000000000
000000000000000000000000000000000000
000000000000000000000000000000000000
000000000000000000000000000000000000
000000000000000000000000000000000000
000000000000000000000000000000000000
000000000000000000000000000000000000
000000000000000000000000000000000000
000000000000000000000000000000000000
000000000000000000000000000000000000
000000000000000000000000000000000000
000000000000000000000000000000000000
000000000000000000000000000000000000
000000000000000000000000000000000000
000000000000000000000000000000000000
000000000000000000000000000000100000
000000000000000000000000000001000000
000000000000000000000000000001000000
000001000000000100000000000001100000
000010000010000100000000000001100000
000010000100000100000000000001100000
000010000100000100000000000001100000
000011000110000100000000000001100000
000011000110000100000000000001000000
000011000110000100000000000001000000
000011000100000100000000000000100000
000010000100000000000000000000000000
000010000010000000000000000000000000
000001000000000000000000000000000000
000000000000000000000000000000000000
000000000000000000000000000000000000
000000000000000000000000000000000000
000000000000000000000000000000000000
000000000000000000000000000000000000
000000000000000000000000000000000000
000000000000000000000000000000000000
000000000000000000000000000000000000
000000000000000000000000000000000000
000000000000000000000000000000000000
000000000000000000000000000000000000
000000000000000000000000000000000000
000000000000000000000000000000000000
000000000000000000000000000000100000
000000000000000000000000000001000000
000000000000000100001000000001000000
000001000000000100001000010001000000
000001000010000100001000010001100000
000010000100000100001000010001000000
000010000110000100001000010001000000
000011000110001000001000010001000000
000011000110001000001000010001000000
000011000110001000001000010001100000
000011000110001000001000010001000000
000011000110000100001000010001000000
000011000110000000001000010000100000
000010000100000000001000000000000000
000001000010000000000000000000000000
000001000000000000000000000000000000
000000000000000000000000000000000000
000000000000000000000000000000000000
000000000000000000000000000000000000
000000000000000000000000000000000000
000000000000000000000000000000000000
000000000000000000000000000000000000
000000000000000000000000000000000000
000000000000000000000000000000000000
000000000000000000000000000000000000
000000000000000000000000000000000000
000000000000000000000000000000000000
000000000000000000000000000000000001
000000000000000000000000000000100001
000000000000000000000000000001000001
000000000000000100001000010001000010
000001000000000100010000010001000010
000001000010000100010000100001000010
000010000100001000010000110000100010
000010000110001000010000110000100010
000010000110001000010000100000100010
000010000100001100010000100000100010
000010000100001000010000100001000010
000010000100001000010000100001000010
000010000110000100010000100001000010
000010000110000100010000100000100001
000010000100000000001000010000000001
000010000010000000001000000000000000
000001000000000000000000000000000000
000000000000000000000000000000000000
000000000000000000000000000000000000
000000000000000000000000000000000000
000000000000000000000000000000000000
000000000000000000000000000000000000
000000000000000000000000000000000000
000000000000000000000000000000000000
000000000000000000000000000000000000
000000000000000000000000000000000000
000000000000000000000000000000000000
000000000000000000000000000000000000
000000000000000000000000000000000001
000000000000000000000000000000100010
000000000000000100001000010000100011
000000000000000100010000100000100011
000001000010000100010000110000100100
000001000100001000010000110000100100
000001000110001000010000110000100100
000001000110001000010000100000100100
000001000100001000010000100000100100
000001000100001000010000100000100100
000001000100001100001000100000100100
000001000100001100010000100001000100
000001000100001000010000110001000011
000010000110000100010000100000100011
000010000110000000010000010000000010
000010000100000000001000000000000001
000001000010000000000000000000000000
000000000000000000000000000000000000
000000000000000000000000000000000000
000000000000000000000000000000000000
000000000000000000000000000000000000
000000000000000000000000000000000000
000000000000000000000000000000000000
000000000000000000000000000000000000
000000000000000000000000000000000000
000000000000000000000000000000000000
000000000000000000000000000000000000
000000000000000000000000000000000001
000000000000000000000000000000000010
000000000000000000001000000000100010
000000000000000100010000010000100011
000000000010000100010000100000100100
000000000100000100011000110000100100
000001000110000100010000110000000100
000001000110000100001000100000000100
000000000100000100001000100000100100
000000000100000100001000010000100100
000000000010001000001000010000100100
000000000010001100001000010001000100
000000000010001100001000100001000100
000001000010001000010000110001000100
000010000100000100010000110000100100
000010000110000000010000100000100011
000010000100000000001000010000000010
000001000010000000000000000000000001
000000000000000000000000000000000000
000000000000000000000000000000000000
000000000000000000000000000000000000
000000000000000000000000000000000000
000000000000000000000000000000000000
000000000000000000000000000000000000
000000000000000000000000000000000000
000000000000000000000000000000000000
000000000000000000000000000000000000
000000000000000000000000000000000000
000000000000000000000000000000000001
000000000000000000000000000000000001
000000000000000000001000010000000010
000000000000000000010000100000000011
000000000010000000011000110000100011
000000000100000100011000110000000011
000000000110000100001000100000100011
000000000110000100001000010000100011
000000000100000100000000010000100010
000000000010000100000000000000100010
000000000000001000000000000000100010
000000000000001100001000010001000011
000000000000001100001000100001000011
000001000010001000010000110001000100
000010000100000100011000110000100100
000011000110000000010000100000100011
000010000110000000001000010000000010
000001000100000000001000000000000001
000000000010000000000000000000000000
000000000000000000000000000000000000
000000000000000000000000000000000000
000000000000000000000000000000000000
000000000000000000000000000000000000
000000000000000000000000000000000000
000000000000000000000000000000000000
000000000000000000000000000000000000
000000000000000000000000000000000000
000000000000000000000000000000000000
000000000000000000000000000000000000
000000000000000000001000000000000001
000000000000000000010000010000000001
000000000000000000011000100000000010
000000000100000000011000110000000010
000000000100000000010000110000000010
000000000110000100001000100000100001
000000000100000100000000010000100001
000000000010000100000000000000100001
000000000000000100000000000000100001
000000000000001000000000000001000001
000000000000001100000000010001000001
000000000000001100001000100001100010
000001000000001000010000110001000011
000010000010000100011000110001000100
000011000100000000010000100000100011
000010000110000000001000010000000010
000001000100000000000000000000000000
000000000010000000000000000000000000
000000000000000000000000000000000000
000000000000000000000000000000000000
000000000000000000000000000000000000
000000000000000000000000000000000000
000000000000000000000000000000000000
000000000000000000000000000000000000
000000000000000000000000000000000000
000000000000000000000000000000000000
000000000000000000000000000000000000
000000000000000000000000000000000000
000000000000000000001000000000000000
000000000000000000010000010000000001
000000000010000000011000100000000001
000000000100000000010000110000000001
000000000110000000001000110000000001
000000000110000000001000010000100000
000000000010000100000000010000100000
000000000000000100000000000000100000
000000000000000100000000000001000000
